{"version":"1.0","truncation":{"direction":"Right","max_length":256,"strategy":"LongestFirst","stride":0},"padding":{"strategy":{"Fixed":256},"direction":"Right","pad_to_multiple_of":null,"pad_id":0,"pad_type_id":0,"pad_token":"[PAD]"},"added_tokens":[{"id":0,"content":"[PAD]","single_word":false,"lstrip":false,"rstrip":false,"normalized":false,"special":true},{"id":1,"content":"[UNK]","single_word":false,"lstrip":false,"rstrip":false,"normalized":false,"special":true},{"id":2,"content":"[CLS]","single_word":false,"lstrip":false,"rstrip":false,"normalized":false,"special":true},{"id":3,"content":"[SEP]","single_word":false,"lstrip":false,"rstrip":false,"normalized":false,"special":true}],"normalizer":{"type":"Lowercase"},"pre_tokenizer":{"type":"ByteLevel","add_prefix_space":true,"trim_offsets":true,"use_regex":true},"post_processor":{"type":"BertProcessing","sep":["[SEP]",3],"cls":["[CLS]",2]},"decoder":{"type":"ByteLevel","add_prefix_space":true,"trim_offsets":true,"use_regex":true},"model":{"type":"BPE","dropout":null,"unk_token":null,"continuing_subword_prefix":null,"end_of_word_suffix":null,"fuse_unk":false,"byte_fallback":false,"ignore_merges":false,"vocab":{"[PAD]":0,"[UNK]":1,"[CLS]":2,"[SEP]":3,"!":4,"\"":5,"#":6,"$":7,"%":8,"&":9,"'":10,"(":11,")":12,"*":13,"+":14,",":15,"-":16,".":17,"/":18,"0":19,"1":20,"2":21,"3":22,"4":23,"5":24,"6":25,"7":26,"8":27,"9":28,":":29,";":30,"<":31,"=":32,">":33,"?":34,"@":35,"A":36,"B":37,"C":38,"D":39,"E":40,"F":41,"G":42,"H":43,"I":44,"J":45,"K":46,"L":47,"M":48,"N":49,"O":50,"P":51,"Q":52,"R":53,"S":54,"T":55,"U":56,"V":57,"W":58,"X":59,"Y":60,"Z":61,"[":62,"\\":63,"]":64,"^":65,"_":66,"`":67,"a":68,"b":69,"c":70,"d":71,"e":72,"f":73,"g":74,"h":75,"i":76,"j":77,"k":78,"l":79,"m":80,"n":81,"o":82,"p":83,"q":84,"r":85,"s":86,"t":87,"u":88,"v":89,"w":90,"x":91,"y":92,"z":93,"{":94,"|":95,"}":96,"~":97,"¡":98,"¢":99,"£":100,"¤":101,"¥":102,"¦":103,"§":104,"¨":105,"©":106,"ª":107,"«":108,"¬":109,"®":110,"¯":111,"°":112,"±":113,"²":114,"³":115,"´":116,"µ":117,"¶":118,"·":119,"¸":120,"¹":121,"º":122,"»":123,"¼":124,"½":125,"¾":126,"¿":127,"À":128,"Á":129,"Â":130,"Ã":131,"Ä":132,"Å":133,"Æ":134,"Ç":135,"È":136,"É":137,"Ê":138,"Ë":139,"Ì":140,"Í":141,"Î":142,"Ï":143,"Ð":144,"Ñ":145,"Ò":146,"Ó":147,"Ô":148,"Õ":149,"Ö":150,"×":151,"Ø":152,"Ù":153,"Ú":154,"Û":155,"Ü":156,"Ý":157,"Þ":158,"ß":159,"à":160,"á":161,"â":162,"ã":163,"ä":164,"å":165,"æ":166,"ç":167,"è":168,"é":169,"ê":170,"ë":171,"ì":172,"í":173,"î":174,"ï":175,"ð":176,"ñ":177,"ò":178,"ó":179,"ô":180,"õ":181,"ö":182,"÷":183,"ø":184,"ù":185,"ú":186,"û":187,"ü":188,"ý":189,"þ":190,"ÿ":191,"Ā":192,"ā":193,"Ă":194,"ă":195,"Ą":196,"ą":197,"Ć":198,"ć":199,"Ĉ":200,"ĉ":201,"Ċ":202,"ċ":203,"Č":204,"č":205,"Ď":206,"ď":207,"Đ":208,"đ":209,"Ē":210,"ē":211,"Ĕ":212,"ĕ":213,"Ė":214,"ė":215,"Ę":216,"ę":217,"Ě":218,"ě":219,"Ĝ":220,"ĝ":221,"Ğ":222,"ğ":223,"Ġ":224,"ġ":225,"Ģ":226,"ģ":227,"Ĥ":228,"ĥ":229,"Ħ":230,"ħ":231,"Ĩ":232,"ĩ":233,"Ī":234,"ī":235,"Ĭ":236,"ĭ":237,"Į":238,"į":239,"İ":240,"ı":241,"Ĳ":242,"ĳ":243,"Ĵ":244,"ĵ":245,"Ķ":246,"ķ":247,"ĸ":248,"Ĺ":249,"ĺ":250,"Ļ":251,"ļ":252,"Ľ":253,"ľ":254,"Ŀ":255,"ŀ":256,"Ł":257,"ł":258,"Ń":259,"Ġt":260,"Ġa":261,"he":262,"Ġi":263,"Ġw":264,"Ġthe":265,"Ġs":266,"re":267,"Ġo":268,"in":269,"Ġb":270,"er":271,"nd":272,"Ġf":273,"Ġc":274,"Ġm":275,"ha":276,"ou":277,"as":278,"Ġp":279,"Ġand":280,"Ġto":281,"ed":282,"Ġd":283,"ing":284,"Ġg":285,"or":286,"en":287,"es":288,"ll":289,"Ġl":290,"it":291,"on":292,"Ġn":293,"ic":294,"at":295,"Ġwas":296,"is":297,"an":298,"ot":299,"om":300,"Ġha":301,"ar":302,"Ġof":303,"Ġit":304,"ut":305,"ve":306,"Ġwe":307,"Ġe":308,"le":309,"us":310,"Ġin":311,"oo":312,"Ġbe":313,"Ġth":314,"ac":315,"ver":316,"Ġon":317,"Ġre":318,"Ġy":319,"hat":320,"ly":321,"Ġfor":322,"al":323,"Ġis":324,"Ġh":325,"et":326,"Ġst":327,"ay":328,"ri":329,"Ġyou":330,"ur":331,"ood":332,"Ġthat":333,"ow":334,"..":335,"id":336,"all":337,"Ġmy":338,"Ġhe":339,"gh":340,"st":341,"ent":342,"ld":343,"Ġbut":344,"ke":345,"ith":346,"Ġwith":347,"me":348,"Ġnot":349,"ad":350,"Ġthis":351,"Ġthey":352,"'t":353,"ion":354,"ro":355,"Ġ\\":356,"ir":357,"ice":358,"Ġat":359,"Ġme":360,"Ġpl":361,"ce":362,"Ġu":363,"Ġso":364,"Ġor":365,"Ġhave":366,"Ġan":367,"Ġas":368,"'s":369,".\\":370,"Ġhad":371,"Ġwere":372,"ec":373,"ould":374,"nt":375,"Ġj":376,"ast":377,"ust":378,"el":379,"Ġare":380,"ally":381,"ome":382,"Ġli":383,"pp":384,"very":385,"Ġwh":386,"ght":387,"ant":388,"Ġse":389,"ch":390,"Ġne":391,"ill":392,"ace":393,"ab":394,"Ġex":395,"her":396,"ter":397,"Ġsa":398,"Ġser":399,"Ġgood":400,"Ġfood":401,"Ġthere":402,"ore":403,"Ġal":404,"Ġti":405,"Ġout":406,"Ġr":407,"Ġplace":408,"ff":409,"se":410,"Ġk":411,"red":412,"Ġgo":413,"ack":414,"out":415,"Ġ(":416,"Ġget":417,"Ġsp":418,"Ġfr":419,"Ġsh":420,"ge":421,"un":422,"Ġch":423,"Ġdo":424,"Ġwhe":425,"Ġall":426,"Ġlo":427,"ess":428,"ked":429,"ers":430,"Ġlike":431,"qu":432,"Ġgre":433,"Ġjust":434,"Ġsu":435,"th":436,"Ġif":437,"ain":438,"Ġus":439,"Ġab":440,"Ġserv":441,"Ġup":442,"est":443,"am":444,"end":445,"il":446,"ak":447,"Ġour":448,"op":449,"Ġvery":450,"Ġhere":451,"Ġord":452,"Ġone":453,"Ġfri":454,"one":455,"Ġwould":456,"Ġv":457,"ry":458,"ick":459,"Ġcom":460,"Ġdid":461,"ich":462,"res":463,"mp":464,"ul":465,"ink":466,"Ġche":467,"Ġtime":468,"Ġsome":469,"Ġwa":470,"...":471,"ite":472,"Ġca":473,"Ġwhen":474,"Ġcan":475,"Ġgreat":476,"Ġfrom":477,"ven":478,"ate":479,"and":480,"ie":481,"Ġservice":482,"ive":483,"ck":484,"ni":485,"Ġro":486,"art":487,"Ġwor":488,"ation":489,"han":490,"Ġtheir":491,"Ġno":492,"Ġback":493,"Ġexp":494,"Ġabout":495,"Ġco":496,"ous":497,"so":498,"Ġwait":499,"ough":500,"Ġtoo":501,"Ġreally":502,"our":503,"Ġwhat":504,"ake":505,"os":506,"able":507,"iz":508,"Ġde":509,"ind":510,"Ġdis":511,"Ġle":512,"Ġam":513,"Ġover":514,"Ġqu":515,"Ġpr":516,"ight":517,"av":518,"Ġany":519,"ort":520,"ca":521,"ct":522,"ine":523,"use":524,"!!":525,"ty":526,"Ġfe":527,"Ġyour":528,"Ġshe":529,"ther":530,"nthe":531,"Ġ\\\"":532,"Ġ$":533,"Ġpre":534,"ound":535,"Ġwill":536,"way":537,"Ġcon":538,"ide":539,"Ġfl":540,"Ġwhich":541,"Ġdon":542,"ook":543,"ag":544,"Ġother":545,"Ġonly":546,"Ġbeen":547,"Ġpro":548,"Ġoff":549,"Ġrest":550,"ered":551,"Ġsee":552,"ig":553,"Ġmore":554,"ect":555,"Ġmo":556,"Ġbeca":557,"\\\"":558,"Ġpe":559,"fter":560,"Ġgot":561,"Ġdr":562,"Ġbecause":563,"Ġ-":564,"Ġen":565,"Ġfriend":566,"Ġeven":567,"Ġevery":568,"Ġ1":569,"Ġar":570,"Ġthem":571,"Ġby":572,"Ġman":573,"Ġcr":574,"itt":575,"im":576,"Ġkn":577,"hing":578,"int":579,"Ġafter":580,"Ġwant":581,"own":582,"Ġsal":583,"Ġcould":584,"Ġtast":585,"Ġcl":586,"Ġ2":587,"Ġve":588,"we":589,"Ġag":590,"Ġthan":591,"ong":592,"Ġri":593,"aur":594,"aurant":595,"Ġrestaurant":596,"ard":597,"ap":598,"Ġnice":599,"Ġbr":600,"oy":601,"Ġbu":602,"'ve":603,"Ġalso":604,"Ġhow":605,"ol":606,"ars":607,"pt":608,"Ġmin":609,"ious":610,"um":611,"ist":612,"Ġhas":613,"Ġveg":614,"'m":615,"Ġtry":616,"Ġdec":617,"Ġdidn":618,"ble":619,"oint":620,"Ġcomp":621,"Ġbet":622,"Ġmu":623,"Ġorder":624,"00":625,"Ġte":626,"Ġordered":627,"oup":628,"ress":629,"Ġeat":630,"Ġdrink":631,"Ġknow":632,"Ġwho":633,"ile":634,"ity":635,"Ġroom":636,"avor":637,"Ġsm":638,"Ġmuch":639,"Ġhot":640,"ĠĠ":641,"Ġgr":642,"ment":643,"ople":644,"Ġwell":645,"ings":646,"Ġtw":647,"irst":648,"Ġapp":649,"Ġpeople":650,"age":651,"eri":652,"Ġun":653,"Ġgu":654,"ish":655,"Ġcame":656,"te":657,"ated":658,"Ġbre":659,"Ġpret":660,"Ġwent":661,"Ġsay":662,"ittle":663,"Ġlook":664,"Ġtr":665,"Ġlittle":666,"Ġloc":667,"ade":668,"ved":669,"ree":670,"Ġthen":671,"ip":672,"ud":673,"ass":674,"Ġdel":675,"Ġfirst":676,"Ġnever":677,"Ġagain":678,"thing":679,"com":680,"Ġcha":681,"Ġmen":682,"Ġbar":683,"Ġpretty":684,"Ġnight":685,"Ġday":686,"Ġbetter":687,"Ġad":688,"Ġher":689,"iew":690,"ful":691,"ese":692,"Ġ3":693,"ner":694,"day":695,"Ġbur":696,"ence":697,"aff":698,"king":699,"Ġbest":700,"Ġbl":701,"Ġsaid":702,"Ġway":703,"Ġdi":704,"Ġthink":705,"other":706,"icken":707,"ways":708,"Ġdin":709,"ffe":710,"les":711,"Ġlove":712,"Ġneed":713,"Ġminut":714,"Ġdown":715,"to":716,"ian":717,"unch":718,"Ġchicken":719,"Ġcome":720,"ions":721,"Ġgoing":722,"Ġsl":723,"ail":724,"Ġmenu":725,"Ġexperi":726,"eci":727,"ooked":728,"az":729,"ach":730,"Ġmake":731,"ue":732,"Ġtwo":733,"fore":734,"ater":735,"ert":736,"are":737,"Ġstaff":738,"ought":739,"ger":740,"Ġbad":741,"Ġye":742,"Ġvegas":743,"here":744,"Ġalways":745,"be":746,"ving":747,"app":748,"Ġbefore":749,"ft":750,"Ġpart":751,"Ġtri":752,"ually":753,"Ġwal":754,"omet":755,"xt":756,"ure":757,").":758,"ies":759,"act":760,"ose":761,"nder":762,"Ġminutes":763,"Ġrev":764,"Ġsc":765,"Ġcall":766,"Ġste":767,"uce":768,"Ġper":769,"Ġsomet":770,"Ġmade":771,"Ġbot":772,"side":773,"Ġhour":774,"'re":775,"ices":776,"fin":777,"ount":778,"Ġreview":779,"izz":780,"Ġright":781,"Ġstill":782,"Ġlot":783,"Ġexperience":784,"Ġcle":785,"Ġseem":786,"Ġnew":787,"Ġaround":788,"Ġbit":789,"gg":790,"Ġok":791,"ave":792,"Ġcar":793,"Ġtake":794,"Ġmost":795,"....":796,"Ġtable":797,"ub":798,"ost":799,"Ġprice":800,"Ġhapp":801,"ince":802,"Ġpizz":803,"ush":804,"Ġwasn":805,"Ġbus":806,"Ġmay":807,"ool":808,"Ġfew":809,"Ġcust":810,"Ġshow":811,"wn":812,"Ġlong":813,"urn":814,"Ġits":815,"Ġfriendly":816,"Ġflavor":817,"Ġgive":818,"oc":819,"ull":820,"igh":821,"Ġdefin":822,"Ġcustom":823,"itely":824,"mes":825,"Ġwhile":826,"per":827,"fe":828,"Ġever":829,"Ġsince":830,"Ġmeal":831,"ber":832,"Ġtook":833,"ason":834,"Ġcheese":835,"Ġtold":836,"Ġanother":837,"ever":838,"Ġasked":839,"Ġ4":840,"Ġ5":841,"Ġcheck":842,"hes":843,"Ġsure":844,"Ġnow":845,"Ġsmall":846,"Ġvis":847,"Ġlocation":848,"Ġent":849,"Ġsalad":850,"Ġact":851,"Ġaw":852,"Ġ&":853,"Ġstay":854,"Ġdes":855,"Ġdefinitely":856,"Ġpizza":857,"ting":858,"Ġfind":859,"Ġac":860,"Ġbeing":861,"'ll":862,"Ġtimes":863,"Ġshould":864,"Ġsauce":865,"Ġsomething":866,"Ġthough":867,"Ġinto":868,"Ġwee":869,"Ġcas":870,"joy":871,"hed":872,"Ġwork":873,"Ġph":874,"Ġnext":875,"Ġop":876,"Ġvisit":877,"ra":878,"Ġenjoy":879,"Ġspeci":880,"Ġfin":881,"oor":882,"Ġserver":883,"Ġwhere":884,"ont":885,"elf":886,"mend":887,"Ġres":888,"Ġlast":889,"em":890,"Ġthing":891,"Ġdelic":892,"Ġfeel":893,"Ġhotel":894,"ix":895,"Ġmeat":896,"commend":897,"up":898,"Ġexpect":899,"Ġcre":900,"ens":901,"Ġchar":902,"Ġbig":903,"no":904,"Ġdisapp":905,"Ġsand":906,"Ġlunch":907,"Ġdrinks":908,"Ġwr":909,"Ġrecommend":910,"Ġke":911,"Ġdelicious":912,"!\\":913,"Ġfres":914,"Ġext":915,"Ġnothing":916,"Ġthr":917,"Ġmany":918,"Ġarea":919,"Ġel":920,"ame":921,"Ġdisappoint":922,"Ġeverything":923,"Ġend":924,"Ġsandw":925,"Ġpar":926,"Ġside":927,"Ġclean":928,"ably":929,"ady":930,"lp":931,"Ġsat":932,"akes":933,"Ġfresh":934,"Ġhis":935,"'d":936,"Ġimp":937,"Ġwanted":938,"ily":939,"Ġpay":940,"ating":941,"ond":942,"ks":943,"Ġgl":944,"ep":945,"Ġspecial":946,"Ġdoes":947,"Ġamaz":948,"Ġdinner":949,"ns":950,"Ġhelp":951,"ato":952,"Ġlet":953,"Ġstars":954,"Ġhome":955,"Ġhigh":956,"mm":957,"Ġatt":958,"Ġstore":959,"Ġexce":960,"Ġinc":961,"Ġstart":962,"Ġkind":963,"Ġmar":964,"lf":965,"lect":966,"ffere":967,"Ġburger":968,"iced":969,"uck":970,"ality":971,"erson":972,"Ġworth":973,"edi":974,"Ġswe":975,"Ġbo":976,"Ġchan":977,"Ġamazing":978,"Ġdiffere":979,"pr":980,"Ġsame":981,"Ġopen":982,"Ġsha":983,"ans":984,"Ġperf":985,"Ġgi":986,"Ġboth":987,"Ġunder":988,"Ġguy":989,"Ġbreak":990,"Ġtried":991,"my":992,"Ġold":993,"Ġelse":994,"Ġenough":995,"Ġhar":996,"Ġtaste":997,"oney":998,"Ġsteak":999,"ning":1000,"Ġadd":1001,"Ġpast":1002,"Ġlooking":1003,"Ġreason":1004,"Ġstar":1005,"Ġplac":1006,"Ġbas":1007,"ise":1008,"ided":1009,"Ġleft":1010,"Ġperson":1011,"Ġbuff":1012,"pped":1013,"Ġthings":1014,"nwe":1015,"Ġthought":1016,"ance":1017,"Ġaway":1018,"air":1019,"rible":1020,"Ġemp":1021,"Ġjo":1022,"Ġhappy":1023,"Ġquality":1024,"),":1025,"ular":1026,"Ġput":1027,"ude":1028,"--":1029,"Ġfree":1030,"uff":1031,"Ġfries":1032,"Ġcoup":1033,"Ġactually":1034,"room":1035,"aking":1036,"Ġret":1037,"Ġcustomer":1038,"Ġbread":1039,"Ġdifferent":1040,"Ġroll":1041,"Ġsweet":1042,"bably":1043,"ork":1044,"Ġprices":1045,"Ġstri":1046,"Ġfavor":1047,"Ġpot":1048,"Ġperfect":1049,"Ġhim":1050,"Ġwhy":1051,"Ġhowever":1052,"ef":1053,"ouse":1054,"ne":1055,"ient":1056,"Ġanything":1057,"orm":1058,"Ġwater":1059,"Ġthrough":1060,"the":1061,"Ġfun":1062,"Ġpat":1063,"Ġtop":1064,"Ġprobably":1065,"ute":1066,"iness":1067,"Ġquick":1068,"Ġdri":1069,"Ġhu":1070,"led":1071,"Ġfound":1072,"Ġsuper":1073,"Ġitem":1074,"Ġline":1075,"Ġmanag":1076,"Ġtell":1077,"fast":1078,"Ġlar":1079,"ng":1080,"Ġhand":1081,"Ġselect":1082,"iss":1083,"Ġmoney":1084,"Ġ10":1085,"Ġopt":1086,"Ġbuffet":1087,"pe":1088,"leas":1089,"ushi":1090,"Ġreg":1091,"anc":1092,"Ġsandwich":1093,"Ġsec":1094,"ves":1095,"Ġfriends":1096,"less":1097,"Ġcor":1098,"fort":1099,"ire":1100,"Ġsur":1101,"Ġmaybe":1102,"lain":1103,"ately":1104,"Ġhard":1105,"ables":1106,"Ġthese":1107,"Ġonce":1108,"Ġinst":1109,"osp":1110,"Ġsushi":1111,"Ġlooked":1112,"Ġbreakfast":1113,"esome":1114,"Ġstrip":1115,"Ġdecided":1116,"Ġplaces":1117,"Ġhalf":1118,"Ġfull":1119,"ts":1120,"Ġgir":1121,"Ġcour":1122,"Ġref":1123,"where":1124,"Ġwaitress":1125,"og":1126,"self":1127,"hen":1128,"Ġawesome":1129,"Ġdecent":1130,"Ġcons":1131,"ffee":1132,"Ġask":1133,"Ġport":1134,"Ġfront":1135,"Ġcont":1136,"Ġown":1137,"nw":1138,"Ġsoup":1139,"io":1140,"Ġreturn":1141,"Ġleast":1142,"Ġeach":1143,"Ġyears":1144,"Ġmon":1145,"Ġstand":1146,"Ġcalled":1147,"od":1148,"Ġbeer":1149,"Ġdeal":1150,"atch":1151,"li":1152,"icy":1153,"Ġcoffee":1154,"most":1155,"Ġpoint":1156,"Ġtasty":1157,"Ġpleas":1158,"ary":1159,"Ġinside":1160,"Ġfar":1161,"Ġgetting":1162,"Ġarri":1163,"Ġter":1164,"Ġwi":1165,"bs":1166,"Ġcheap":1167,"erv":1168,"de":1169,"Ġdone":1170,"ign":1171,"Ġquite":1172,"essert":1173,"ale":1174,"Ġav":1175,"Ġcream":1176,"Ġlarge":1177,"osphere":1178,"Ġgroup":1179,"Ġegg":1180,"ations":1181,"ons":1182,"Ġatm":1183,"Ġfavorite":1184,"Ġthose":1185,"Ġrice":1186,"Ġhuge":1187,"Ġmanager":1188,"Ġreal":1189,"ros":1190,"Ġfam":1191,"Ġused":1192,"arly":1193,"Ġtasted":1194,"Ġdish":1195,"Ġfried":1196,"get":1197,"Ġdessert":1198,"Ġtac":1199,"Ġselection":1200,"ny":1201,"!!!":1202,"Ġuse":1203,"ional":1204,"Ġtre":1205,"Ġatmosphere":1206,"Ġdoor":1207,"Ġfinally":1208,"Ġspot":1209,"Ġhaving":1210,"Ġhor":1211,"ared":1212,"Ġdisappointed":1213,"Ġsit":1214,"Ġless":1215,"Ġcare":1216,"Ġexcell":1217,"ican":1218,"ention":1219,"uring":1220,"Ġpick":1221,"ize":1222,"Ġmus":1223,"Ġtables":1224,"Ġfre":1225,"Ġrec":1226,"Ġgave":1227,"Ġty":1228,"Ġkid":1229,"owd":1230,"ither":1231,"Ġexcellent":1232,"Ġes":1233,"ged":1234,"nf":1235,"Ġbusy":1236,"Ġla":1237,"not":1238,"Ġ20":1239,"Ġbusiness":1240,"Ġcouple":1241,"ult":1242,"Ġwaiting":1243,"Ġcho":1244,"Ġalmost":1245,"Ġbeef":1246,"Ġsomeone":1247,"Ġreviews":1248,"Ġtal":1249,"Ġserved":1250,"Ġwon":1251,"Ġhouse":1252,"Ġseemed":1253,"Ġappet":1254,"Ġitems":1255,"Ġrep":1256,"Ġwithout":1257,"band":1258,"Ġplay":1259,"vers":1260,"Ġthree":1261,"ath":1262,"Ġwar":1263,"Ġcount":1264,"uc":1265,"Ġoutside":1266,"Ġcool":1267,"iet":1268,"pping":1269,"Ġpotato":1270,"Ġgirl":1271,"na":1272,"usband":1273,"Ġstuff":1274,"Ġmust":1275,"Ġrun":1276,"co":1277,"ather":1278,"Ġhop":1279,"iously":1280,"Ġweek":1281,"Ġhusband":1282,"if":1283,"Ġrece":1284,"Ġrem":1285,"ual":1286,"Ġwalk":1287,"Ġcoming":1288,"Ġeveryone":1289,"elt":1290,"ensive":1291,"Ġtrying":1292,"Ġwo":1293,"Ġho":1294,"Ġcomple":1295,"ino":1296,"Ġchip":1297,"Ġshop":1298,"Ġcouldn":1299,"Ġlater":1300,"Ġfact":1301,"Ġbel":1302,"Ġduring":1303,"ord":1304,"Ġfelt":1305,"ten":1306,"Ġdishes":1307,"Ġpa":1308,"Ġsecond":1309,"ier":1310,"ized":1311,"blem":1312,"rimp":1313,"Ġimpress":1314,"Ġtown":1315,"Ġeating":1316,"Ġwine":1317,"mon":1318,"Ġeas":1319,"Ġisn":1320,"Ġhours":1321,"ead":1322,"Ġlight":1323,"Ġproblem":1324,"Ġgri":1325,"Ġfo":1326,"Ġ6":1327,"Ġusually":1328,"Ġappetiz":1329,"Ġfish":1330,"Ġset":1331,"Ġkeep":1332,"ically":1333,"Ġunt":1334,"Ġwhole":1335,"Ġred":1336,"Ġeither":1337,"Ġfill":1338,"ib":1339,"Ġexc":1340,"Ġshrimp":1341,"Ġcut":1342,"Ġwalked":1343,"Ġmusic":1344,"imp":1345,"ps":1346,"Ġfloor":1347,"ited":1348,"Ġinstead":1349,"Ġsk":1350,"Ġwaiter":1351,"Ġoffer":1352,"nb":1353,"Ġtot":1354,"ward":1355,"Ġextra":1356,"ross":1357,"??":1358,"stand":1359,"Ġsmo":1360,"elp":1361,"osed":1362,"Ġcrowd":1363,"Ġfast":1364,"Ġind":1365,"Ġcooked":1366,"Ġcold":1367,"Ġet":1368,"ender":1369,"Ġdoesn":1370,"que":1371,"loy":1372,"Ġguess":1373,"oth":1374,"Ġrestaurants":1375,"Ġuntil":1376,"Ġsho":1377,"Ġsuch":1378,"Ġwrong":1379,"Ġclose":1380,"Ġgen":1381,"Ġwouldn":1382,"any":1383,"Ġlist":1384,"Ġmedi":1385,"ild":1386,"Ġturn":1387,"Ġpri":1388,"Ġdry":1389,"Ġyes":1390,"Ġbring":1391,"ates":1392,"Ġcook":1393,"Ġemploy":1394,"Ġcard":1395,"riend":1396,"Ġclub":1397,"Ġenjoyed":1398,"Ġsurpr":1399,"peci":1400,"Ġwonder":1401,"Ġ:":1402,"verage":1403,"Ġrude":1404,"aw":1405,"Ġmonth":1406,"sol":1407,"Ġparty":1408,"Ġfamily":1409,"Ġmight":1410,"lled":1411,"Ġpork":1412,"veral":1413,"Ġdecor":1414,"Ġyear":1415,"Ġincl":1416,"Ġstr":1417,"Ġbrought":1418,"Ġlou":1419,"Ġdog":1420,"Ġseveral":1421,"Ġlas":1422,"Ġcourse":1423,"ocol":1424,"ted":1425,"Ġice":1426,"Ġbuy":1427,"ness":1428,"Ġpool":1429,"Ġstarted":1430,"nit":1431,"Ġstre":1432,"Ġworst":1433,"Ġemploye":1434,"Ġmain":1435,"Ġoverall":1436,"Ġcomplain":1437,"lic":1438,"Ġfine":1439,"Ġslow":1440,"Ġbott":1441,"Ġass":1442,"Ġwaited":1443,"ah":1444,"Ġplate":1445,"Ġsupp":1446,"Ġlack":1447,"uct":1448,"though":1449,"Ġdining":1450,"Ġvar":1451,"Ġhead":1452,"Ġsty":1453,"Ġpack":1454,"nmy":1455,"astic":1456,"Ġdays":1457,"nday":1458,"ical":1459,"itc":1460,"Ġchocol":1461,"Ġcomes":1462,"Ġbill":1463,"ertain":1464,"Ġyelp":1465,"pecially":1466,"Ġseated":1467,"ash":1468,"ets":1469,"Ġshort":1470,"Ġglass":1471,"Ġair":1472,"nc":1473,"itting":1474,"ci":1475,"Ġneeded":1476,"Ġpic":1477,"ĠĠĠĠ":1478,"ang":1479,"Ġpho":1480,"Ġstop":1481,"ised":1482,"Ġwatch":1483,"Ġwife":1484,"Ġsaw":1485,"Ġsimp":1486,"enc":1487,"Ġcup":1488,"Ġarrived":1489,"cha":1490,"ned":1491,"Ġable":1492,".\\\"":1493,"cks":1494,"Ġbag":1495,"Ġokay":1496,"Ġspicy":1497,"30":1498,"by":1499,"ump":1500,"mber":1501,"Ġname":1502,"Ġloved":1503,"Ġseat":1504,"Ġcomplete":1505,"Ġcost":1506,"Ġmiss":1507,"reme":1508,"Ġchocolate":1509,"Ġseems":1510,"Ġsto":1511,"rest":1512,"wh":1513,"ory":1514,"ative":1515,"Ġread":1516,"ines":1517,"Ġhorrible":1518,"mb":1519,"Ġmex":1520,"Ġap":1521,"Ġgar":1522,"Ġabsol":1523,"Ġz":1524,"Ġboy":1525,"llow":1526,"nth":1527,"Ġhair":1528,"Ġrooms":1529,"cc":1530,"Ġpos":1531,"Ġtea":1532,"Ġplus":1533,"Ġtom":1534,"Ġabsolute":1535,"Ġmakes":1536,"Ġcustomers":1537,"Ġjob":1538,"ened":1539,"Ġrel":1540,"ors":1541,"Ġlocal":1542,"Ġate":1543,"gar":1544,"ax":1545,"Ġexpensive":1546,"Ġtrip":1547,"gin":1548,"Ġaverage":1549,"Ġcur":1550,"Ġespecially":1551,"pm":1552,"ye":1553,"ails":1554,"Ġkids":1555,"Ġrecei":1556,"aut":1557,"ready":1558,"Ġdress":1559,"Ġbath":1560,"Ġleave":1561,"Ġlive":1562,"sa":1563,"Ġterrible":1564,"Ġpass":1565,"Ġchips":1566,"Ġacc":1567,"Ġcal":1568,"ling":1569,"Ġbart":1570,"Ġalready":1571,"Ġ7":1572,"Ġmyself":1573,"Ġinf":1574,"Ġparking":1575,"Ġgener":1576,"Ġyet":1577,"Ġmid":1578,"Ġinclud":1579,"Ġoptions":1580,"Ġbac":1581,"vent":1582,"af":1583,"Ġcent":1584,"Ġpaid":1585,"Ġow":1586,"ider":1587,"ung":1588,"Ġ8":1589,"Ġpie":1590,"Ġextreme":1591,"Ġbow":1592,"Ġmor":1593,"Ġcasino":1594,"10":1595,"Ġfan":1596,"Ġtoday":1597,"ird":1598,"ible":1599,"Ġpur":1600,"ange":1601,"Ġtacos":1602,")\\":1603,"Ġsign":1604,"ket":1605,"dd":1606,"Ġregular":1607,"Ġ'":1608,"Ġoh":1609,"Ġended":1610,"Ġfair":1611,"outh":1612,":\\":1613,"kend":1614,"Ġhon":1615,"Ġnear":1616,"Ġdeli":1617,"50":1618,"Ġphone":1619,"Ġowner":1620,"ster":1621,"Ġpoor":1622,"Ġyum":1623,"ied":1624,"Ġview":1625,"Ġdrive":1626,"Ġmexican":1627,"Ġweekend":1628,"Ġ.":1629,"Ġbed":1630,"its":1631,"Ġpol":1632,"Ġmix":1633,"Ġliked":1634,"par":1635,"Ġguys":1636,"Ġkitc":1637,"Ġiss":1638,"Ġrolls":1639,"nif":1640,"Ġce":1641,"Ġhost":1642,"Ġanyone":1643,"atter":1644,"Ġgiven":1645,"gr":1646,"ues":1647,"Ġ30":1648,"Ġlate":1649,"Ġextremely":1650,"Ġtha":1651,"Ġrather":1652,"Ġmean":1653,"Ġamount":1654,"Ġ15":1655,"Ġkitchen":1656,"Ġwish":1657,"Ġinter":1658,"ently":1659,"Ġworking":1660,"Ġstreet":1661,"Ġsitting":1662,"nthis":1663,"Ġsize":1664,"Ġmention":1665,"Ġinte":1666,"Ġreme":1667,"ition":1668,"Ġago":1669,"Ġreserv":1670,"gers":1671,"Ġbeaut":1672,"Ġalthough":1673,"ides":1674,"Ġins":1675,"Ġseen":1676,"Ġspend":1677,"Ġsub":1678,"Ġwarm":1679,"isp":1680,"Ġpepp":1681,"Ġclass":1682,"Ġcharge":1683,"!!!!":1684,"Ġpres":1685,"Ġdoing":1686,"rect":1687,"Ġgreen":1688,"ia":1689,"Ġbelie":1690,"nch":1691,"rit":1692,"ins":1693,"Ġbland":1694,"Ġmind":1695,"Ġcounter":1696,"Ġabsolutely":1697,"pl":1698,"ew":1699,"ery":1700,"Ġentire":1701,"cked":1702,"au":1703,"Ġwall":1704,"Ġprom":1705,"iful":1706,"Ġthai":1707,"Ġinterest":1708,"Ġbb":1709,"Ġcake":1710,"Ġbacon":1711,"Ġwings":1712,"Ġtyp":1713,"\\\".":1714,"Ġchin":1715,"Ġfant":1716,"Ġbell":1717,"Ġplan":1718,"Ġlob":1719,"Ġhelpful":1720,"Ġexcept":1721,"Ġmaking":1722,"enty":1723,"Ġju":1724,"Ġcrab":1725,"Ġsoon":1726,"Ġchange":1727,"Ġmorning":1728,"Ġob":1729,"Ġveget":1730,"Ġlots":1731,"Ġaut":1732,"Ġunderstand":1733,"Ġstyle":1734,"Ġchef":1735,"fortable":1736,"bo":1737,"Ġrequ":1738,"friend":1739,"Ġlow":1740,"Ġbathroom":1741,"Ġspe":1742,"lo":1743,"Ġdro":1744,"Ġimpressed":1745,"aving":1746,"fortun":1747,"Ġpo":1748,"urday":1749,"Ġwonderful":1750,"Ġsw":1751,"ulous":1752,"Ġlooks":1753,"Ġbowl":1754,"Ġsalsa":1755,"Ġfantastic":1756,"Ġetc":1757,"ween":1758,"Ġhonest":1759,"Ġseason":1760,"Ġspr":1761,"Ġblack":1762,"entive":1763,"Ġportions":1764,"Ġbbq":1765,"Ġprod":1766,"Ġmac":1767,"Ġsunday":1768,"ggest":1769,"Ġ9":1770,"Ġbelieve":1771,"Ġsuggest":1772,"Ġsaturday":1773,"gan":1774,"Ġcrisp":1775,"els":1776,"Ġcash":1777,"Ġsme":1778,"ti":1779,"Ġim":1780,"Ġbeh":1781,"Ġstayed":1782,"Ġserve":1783,"alian":1784,"Ġheard":1785,"Ġseating":1786,"iance":1787,"nn":1788,"Ġgets":1789,"Ġemployees":1790,"Ġnum":1791,"Ġbetween":1792,"Ġbutter":1793,"Ġfour":1794,"olog":1795,"Ġquickly":1796,"Ġvariet":1797,"Ġtomato":1798,"go":1799,"unk":1800,"Ġitself":1801,"Ġwhite":1802,"port":1803,"Ġfix":1804,"Ġtwice":1805,"bur":1806,"Ġstick":1807,"cept":1808,"Ġdoll":1809,"Ġpatio":1810,"Ġburgers":1811,"Ġkept":1812,"Ġnood":1813,"Ġloud":1814,"nso":1815,"Ġsad":1816,"iter":1817,"ark":1818,"Ġready":1819,"amb":1820,"arent":1821,"Ġprep":1822,"Ġconsider":1823,"Ġweren":1824,"Ġbehind":1825,"Ġearly":1826,"Ġstra":1827,"Ġlady":1828,"Ġtv":1829,"Ġmass":1830,"Ġmush":1831,"Ġvegg":1832,"zen":1833,"Ġamb":1834,"ial":1835,"Ġexpected":1836,"Ġhit":1837,"Ġeasy":1838,"nthey":1839,"Ġconf":1840,"Ġest":1841,"Ġcertain":1842,"Ġremember":1843,"Ġdisc":1844,"Ġitalian":1845,"Ġbeautiful":1846,"Ġsound":1847,"ection":1848,"Ġwom":1849,"Ġcompletely":1850,"Ġplenty":1851,"Ġfrench":1852,"ta":1853,"amp":1854,"Ġconc":1855,"Ġtemp":1856,"Ġdesk":1857,"Ġportion":1858,"Ġothers":1859,"Ġchoice":1860,"20":1861,"vel":1862,"Ġappetizer":1863,"but":1864,"Ġempty":1865,"ding":1866,"Ġfro":1867,"Ġtaking":1868,"Ġattentive":1869,"Ġwalking":1870,"fortunately":1871,"lish":1872,"Ġcompany":1873,"Ġnorm":1874,"br":1875,"Ġimm":1876,"**":1877,"Ġwind":1878,"Ġgone":1879,"Ġmom":1880,"Ġtip":1881,"Ġtreat":1882,"ank":1883,"ished":1884,"Ġeggs":1885,"Ġvariety":1886,"Ġdou":1887,"orry":1888,"Ġdir":1889,"Ġmess":1890,"Ġmil":1891,"Ġdep":1892,"line":1893,"Ġhighly":1894,"ured":1895,"oose":1896,"Ġpasta":1897,"Ġcock":1898,"Ġbeans":1899,"Ġcol":1900,"Ġavail":1901,"Ġreceived":1902,"ows":1903,"Ġpriced":1904,"Ġfriday":1905,"Ġpop":1906,"Ġide":1907,"Ġtotally":1908,"fess":1909,"Ġuni":1910,"Ġhear":1911,"ients":1912,"Ġknew":1913,"priced":1914,"Ġpotatoes":1915,"right":1916,"Ġexplain":1917,"Ġdue":1918,"Ġresp":1919,"?\\":1920,"Ġ,":1921,"Ġbro":1922,"iches":1923,"Ġma":1924,"Ġseriously":1925,"let":1926,"Ġneeds":1927,"Ġgy":1928,"key":1929,"Ġacross":1930,"Ġstopped":1931,"Ġquest":1932,"which":1933,"ey":1934,"Ġstandard":1935,"Ġoften":1936,"Ġgreas":1937,"Ġscre":1938,"Ġcockt":1939,"Ġbite":1940,"iv":1941,"Ġburrit":1942,"ili":1943,"imes":1944,"Ġavailable":1945,"dle":1946,"Ġsing":1947,"Ġrid":1948,"ired":1949,"Ġsaying":1950,"Ġear":1951,"Ġhung":1952,"Ġevening":1953,"ced":1954,"Ġchinese":1955,"fessional":1956,"enix":1957,"Ġluck":1958,"Ġconsist":1959,"Ġorders":1960,"Ġoffered":1961,"Ġbartender":1962,"ister":1963,"Ġservers":1964,"Ġpaying":1965,"Ġbir":1966,"Ġadv":1967,"Ġpleasant":1968,"Ġspace":1969,"Ġprov":1970,"nover":1971,"Ġsandwiches":1972,"che":1973,"Ġflavors":1974,"Ġtoast":1975,"...\\":1976,"Ġlife":1977,"Ġexact":1978,"Ġalong":1979,"Ġpain":1980,"Ġevent":1981,"Ġclos":1982,"ully":1983,"Ġmonths":1984,"Ġfig":1985,"used":1986,"ures":1987,"Ġpull":1988,"ita":1989,"ffic":1990,"Ġspo":1991,"Ġphoenix":1992,"fer":1993,"Ġtick":1994,"Ġreasonable":1995,"Ġunfortunately":1996,"Ġmedioc":1997,"Ġgame":1998,"Ġguest":1999,"Ġtype":2000,"night":2001,"Ġsy":2002,"Ġpurcha":2003,"Ġran":2004,"Ġart":2005,"Ġboyfriend":2006,"Ġbirth":2007,"nce":2008,"als":2009,"Ġgarlic":2010,"Ġbook":2011,"Ġsn":2012,"Ġori":2013,"Ġann":2014,"isf":2015,"Ġtor":2016,"Ġnoticed":2017,"aken":2018,"Ġordering":2019,"Ġgrilled":2020,"att":2021,"Ġhang":2022,"Ġaccom":2023,"zz":2024,"Ġimmedi":2025,"Ġnon":2026,"azy":2027,"ern":2028,"Ġpacked":2029,"Ġmach":2030,"Ġing":2031,"Ġgreet":2032,"Ġmediocre":2033,"ove":2034,"Ġappe":2035,"cri":2036,"ots":2037,"Ġappoint":2038,"like":2039,"Ġocc":2040,"Ġsort":2041,"ada":2042,"Ġgirls":2043,"15":2044,"Ġsometimes":2045,"Ġmushroom":2046,"Ġbirthday":2047,"ds":2048,"Ġrequest":2049,"ments":2050,"Ġpartic":2051,"Ġfive":2052,"ries":2053,"ug":2054,"how":2055,"iment":2056,"Ġtaco":2057,"iny":2058,"Ġcity":2059,"ored":2060,"Ġmiddle":2061,"noverall":2062,"Ġingred":2063,"und":2064,"Ġint":2065,"Ġhope":2066,"Ġpepper":2067,"man":2068,"Ġval":2069,"Ġchecked":2070,"Ġmanage":2071,"Ġdirty":2072,"ball":2073,"Ġoffice":2074,"Ġ--":2075,"gether":2076,"Ġrefill":2077,"ense":2078,"Ġmet":2079,"Ġcomfortable":2080,"Ġslight":2081,"Ġincred":2082,"Ġones":2083,"Ġplease":2084,"aked":2085,"wer":2086,"Ġidea":2087,"np":2088,"Ġworld":2089,"Ġpi":2090,"Ġoverpriced":2091,"Ġpresent":2092,".....":2093,"Ġspent":2094,"Ġperfectly":2095,"arely":2096,"ict":2097,"afood":2098,"Ġlobster":2099,"Ġwed":2100,"ilet":2101,"Ġcharged":2102,"ibly":2103,"kes":2104,"Ġsorry":2105,"Ġtun":2106,"Ġsalt":2107,"Ġexperienc":2108,"Ġapolog":2109,"Ġlocated":2110,"Ġbox":2111,"Ġoil":2112,"Ġfac":2113,"Ġcrust":2114,"Ġinform":2115,"alth":2116,"viously":2117,"ini":2118,"Ġpap":2119,"illa":2120,"Ġpal":2121,"?!":2122,"hh":2123,"ouch":2124,"Ġchair":2125,"Ġsimple":2126,"Ġposs":2127,"Ġhostess":2128,"Ġimmediately":2129,"Ġproduct":2130,"Ġsmell":2131,"Ġfat":2132,"ames":2133,"Ġthank":2134,"Ġexcited":2135,"Ġlonger":2136,"Ġcrowded":2137,"Ġdisappointing":2138,"Ġyummy":2139,"ges":2140,"uit":2141,"what":2142,"uts":2143,"Ġeaten":2144,"Ġgiving":2145,"ms":2146,"Ġsalty":2147,"ervice":2148,"Ġmedium":2149,"Ġyourself":2150,"Ġcred":2151,"rees":2152,"Ġmod":2153,"Ġliter":2154,"Ġonion":2155,"avy":2156,"Ġairport":2157,"Ġcab":2158,"Ġsays":2159,"Ġscot":2160,"Ġtaken":2161,"got":2162,"Ġjoint":2163,"Ġoption":2164,"Ġunless":2165,"Ġturned":2166,"Ġreservation":2167,"airs":2168,"Ġtalk":2169,"Ġpiece":2170,"ined":2171,"Ġnumber":2172,"Ġtogether":2173,"Ġbeers":2174,"Ġprepared":2175,"Ġed":2176,"Ġseafood":2177,"Ġissue":2178,"Ġchoose":2179,"Ġhappened":2180,"Ġbased":2181,"Ġsurprised":2182,"ighb":2183,"Ġfollow":2184,"Ġshopping":2185,"Ġawful":2186,"oid":2187,"hel":2188,"Ġeye":2189,"Ġcontin":2190,"Ġtotal":2191,"Ġsch":2192,"Ġfa":2193,"eces":2194,"Ġmall":2195,"Ġglad":2196,"Ġopened":2197,"Ġlu":2198,"Ġparticular":2199,"Ġtender":2200,"Ġnor":2201,"Ġneighb":2202,").\\":2203,"ming":2204,"vered":2205,"Ġfeeling":2206,"Ġambiance":2207,"iting":2208,"Ġsaus":2209,"Ġsatisf":2210,"Ġclosed":2211,"berry":2212,"ched":2213,"oli":2214,"Ġsupposed":2215,"Ġliterally":2216,"ging":2217,"Ġele":2218,"Ġplates":2219,"Ġweeks":2220,"Ġchance":2221,"Ġcrispy":2222,"Ġbrunch":2223,"99":2224,"Ġans":2225,"Ġaren":2226,"Ġbuild":2227,"Ġcute":2228,"Ġsell":2229,"Ġcase":2230,"Ġtalking":2231,"Ġingredients":2232,"Ġcredit":2233,"itional":2234,"ret":2235,"Ġchees":2236,"Ġinteresting":2237,"iculous":2238,"Ġlim":2239,"Ġcafe":2240,"Ġsalmon":2241,"Ġpricey":2242,"Ġsol":2243,"Ġorigin":2244,"Ġcenter":2245,"Ġpan":2246,"Ġburrito":2247,"Ġhungry":2248,"Ġpieces":2249,"cooked":2250,"Ġbought":2251,"Ġem":2252,"Ġannoy":2253,"ience":2254,"Ġgrab":2255,"Ġcorn":2256,"Ġamer":2257,"Ġmeals":2258,"Ġappetizers":2259,"Ġpost":2260,"Ġhaven":2261,"Ġrecently":2262,"Ġbottle":2263,"aught":2264,"Ġexactly":2265,"Ġcomm":2266,"Ġdist":2267,"cl":2268,"sh":2269,"Ġwithin":2270,"Ġminute":2271,"Ġhold":2272,"Ġtap":2273,"ex":2274,"Ġari":2275,"Ġinv":2276,"Ġdet":2277,"Ġven":2278,"Ġblue":2279,"Ġfore":2280,"ature":2281,"Ġconven":2282,"Ġfrozen":2283,"come":2284,"Ġspl":2285,"Ġsour":2286,"Ġmanagement":2287,"Ġasking":2288,"Ġchoices":2289,"ior":2290,"Ġmouth":2291,"ract":2292,"Ġwow":2293,"ison":2294,"Ġlevel":2295,"Ġmoved":2296,"hent":2297,"Ġrib":2298,"Ġweird":2299,"Ġribs":2300,"Ġsomewhere":2301,"Ġtiny":2302,"Ġsection":2303,"Ġpark":2304,"sel":2305,"Ġleg":2306,"Ġbasically":2307,"Ġface":2308,"Ġdance":2309,"Ġhealth":2310,"nas":2311,"Ġroast":2312,"Ġthin":2313,"Ġsides":2314,"Ġ($":2315,"Ġridiculous":2316,"Ġhands":2317,"Ġappointment":2318,"nwhen":2319,"med":2320,"Ġtur":2321,"Ġstation":2322,"Ġproper":2323,"Ġprofessional":2324,"Ġpict":2325,"Ġsamp":2326,"nthere":2327,"Ġ:)":2328,"Ġgreasy":2329,"ai":2330,"non":2331,"ising":2332,"Ġgoes":2333,"hentic":2334,"more":2335,"oooo":2336,"Ġsoft":2337,"Ġ12":2338,"Ġspecials":2339,"Ġattit":2340,"con":2341,"12":2342,"dale":2343,"read":2344,"Ġdark":2345,"Ġthanks":2346,"Ġrelax":2347,"Ġestab":2348,"nam":2349,"Ġmove":2350,"Ġbun":2351,"Ġpanc":2352,"Ġforget":2353,"Ġgrill":2354,"ote":2355,"Ġmel":2356,"ler":2357,"Ġmist":2358,"Ġprefer":2359,"Ġstaying":2360,"Ġtuna":2361,"Ġnoodles":2362,"ats":2363,"Ġsimply":2364,"arently":2365,"Ġban":2366,"Ġdam":2367,"ites":2368,"Ġhell":2369,"Ġmov":2370,"Ġgrand":2371,"ownt":2372,"tsdale":2373,"Ġtour":2374,"Ġanyway":2375,"nservice":2376,"Ġanywhere":2377,"Ġtrain":2378,"Ġmargar":2379,"Ġadded":2380,"nfor":2381,"Ġremind":2382,"Ġsausage":2383,"Ġtext":2384,"Ġkinda":2385,"ech":2386,"Ġrecommended":2387,"ole":2388,"wise":2389,"Ġcu":2390,"Ġups":2391,"Ġhonestly":2392,"Ġbucks":2393,"nl":2394,"Ġbi":2395,"made":2396,"Ġbrown":2397,"Ġhate":2398,"ops":2399,"Ġfairly":2400,"Ġdownt":2401,"Ġappre":2402,"Ġauthentic":2403,"Ġestablish":2404,"head":2405,"ana":2406,"Ġchild":2407,"Ġabove":2408,"ane":2409,"Ġforgot":2410,"Ġtakes":2411,"Ġmas":2412,"Ġlay":2413,"Ġdie":2414,"Ġforward":2415,"Ġwrite":2416,"Ġwaste":2417,"ages":2418,"ledge":2419,"Ġslightly":2420,"ww":2421,"Ġsqu":2422,"Ġrock":2423,"Ġcoll":2424,"house":2425,"Ġcertainly":2426,"bed":2427,"ron":2428,"Ġcurry":2429,"Ġdaught":2430,"Ġfilled":2431,"Ġtypical":2432,"Ġfil":2433,"antly":2434,"land":2435,"uly":2436,"vious":2437,"Ġhum":2438,"Ġchanged":2439,"Ġavoid":2440,"Ġneighbor":2441,"Ġdowntown":2442,"Ġappreci":2443,"Ġsun":2444,"Ġhappen":2445,"Ġdressing":2446,"Ġmic":2447,"Ġlost":2448,"Ġchili":2449,"Ġvi":2450,"Ġattention":2451,"Ġonions":2452,"hood":2453,"Ġ11":2454,"Ġmassage":2455,"Ġsent":2456,"Ġcir":2457,"ities":2458,"Ġworse":2459,"Ġappro":2460,"Ġdescri":2461,"nm":2462,"Ġwel":2463,"Ġyoung":2464,"Ġheart":2465,"Ġsumm":2466,"time":2467,"Ġfinish":2468,"selves":2469,"Ġaff":2470,"Ġje":2471,"Ġthinking":2472,"Ġincluding":2473,"Ġconsidering":2474,"Ġattitude":2475,"Ġson":2476,"Ġupon":2477,"Ġapparently":2478,"Ġcond":2479,"Ġflavorful":2480,"they":2481,"Ġspeak":2482,"Ġallow":2483,"yes":2484,"Ġthick":2485,"Ġasian":2486,"Ġentrees":2487,"Ġsingle":2488,"Ġrent":2489,"Ġcomb":2490,"bod":2491,"Ġmeet":2492,"Ġoutd":2493,"Ġscottsdale":2494,"dy":2495,"Ġdate":2496,"Ġtasting":2497,"Ġexpecting":2498,"Ġunique":2499,"ock":2500,"Ġ=":2501,"Ġnote":2502,"Ġworked":2503,"Ġflat":2504,"Ġseats":2505,"Ġspin":2506,"Ġcrazy":2507,"Ġopin":2508,"Ġfinished":2509,"Ġmixed":2510,"just":2511,"Ġbab":2512,"lla":2513,"Ġequ":2514,"ried":2515,"Ġadm":2516,"Ġrepl":2517,"arian":2518,"----":2519,"Ġ...":2520,"row":2521,"Ġnails":2522,"Ġresort":2523,"Ġrunning":2524,"Ġbarely":2525,"Ġscr":2526,"Ġpub":2527,"Ġlemon":2528,"Ġshowed":2529,"Ġgreeted":2530,"Ġoccas":2531,"body":2532,"ee":2533,"pect":2534,"Ġtopp":2535,"haps":2536,"gn":2537,"ics":2538,"ky":2539,"ph":2540,"sed":2541,"Ġwhatever":2542,"Ġstraw":2543,"Ġtort":2544,"Ġmine":2545,"Ġmatter":2546,"Ġstud":2547,"Ġwoman":2548,"Ġonline":2549,"eless":2550,"Ġwaff":2551,"Ġobviously":2552,"Ġrare":2553,"Ġclearly":2554,"burgh":2555,"Ġmed":2556,"Ġplaying":2557,"Ġcolor":2558,"ator":2559,"!)":2560,"itive":2561,"ents":2562,"Ġserving":2563,"Ġtruly":2564,"Ġentree":2565,"nal":2566,"Ġmis":2567,"Ġsalads":2568,"Ġdaughter":2569,"Ġclear":2570,"Ġveggies":2571,"Ġsave":2572,"Ġdiscount":2573,"Ġpaper":2574,"tuce":2575,"Ġsouth":2576,"ule":2577,"het":2578,"ering":2579,"Ġflight":2580,"Ġvisited":2581,"Ġelsewhere":2582,"hol":2583,"Ġtouch":2584,"Ġrating":2585,"Ġshot":2586,"Ġtastes":2587,"Ġnights":2588,"Ġmostly":2589,"Ġtoppings":2590,"Ġgross":2591,"Ġdirect":2592,"Ġwatching":2593,"Ġcupc":2594,"Ġdollars":2595,"ndy":2596,"umb":2597,"noon":2598,"Ġwindow":2599,"ility":2600,"Ġseeing":2601,"Ġble":2602,"alley":2603,"Ġstrong":2604,"urt":2605,"Ġlettuce":2606,"Ġwin":2607,"Ġsim":2608,"temp":2609,"Ġcorrect":2610,"wards":2611,"ys":2612,"Ġneg":2613,"ilar":2614,"Ġowners":2615,"Ġbegin":2616,"Ġvalley":2617,"Ġshare":2618,"nbut":2619,"Ġopinion":2620,"Ġball":2621,"ocked":2622,"mod":2623,"Ġfit":2624,"Ġchose":2625,"Ġeasily":2626,"Ġincluded":2627,"Ġdelivery":2628,"Ġmad":2629,"Ġsport":2630,"Ġusual":2631,"Ġcannot":2632,"Ġfoot":2633,"Ġsauc":2634,"Ġleaving":2635,"Ġcompl":2636,"Ġamerican":2637,"Ġbri":2638,"Ġplain":2639,"Ġconvenient":2640,"Ġau":2641,"Ġsle":2642,"ona":2643,"enders":2644,"Ġcorner":2645,"Ġvalue":2646,"Ġtech":2647,"isc":2648,"Ġyog":2649,"Ġtrue":2650,"ountain":2651,"Ġdip":2652,"Ġque":2653,"Ġafternoon":2654,"Ġschool":2655,"ado":2656,"Ġdogs":2657,"Ġmentioned":2658,"gust":2659,"ze":2660,"Ġchairs":2661,"Ġneighborhood":2662,"ination":2663,"Ġny":2664,"Ġnone":2665,"urs":2666,"roc":2667,"Ġsod":2668,"Ġrate":2669,"Ġcover":2670,"Ġsmaller":2671,"Ġsitu":2672,"Ġforever":2673,"25":2674,"Ġnail":2675,"Ġmeans":2676,"Ġlol":2677,"Ġtrad":2678,"Ġmarket":2679,"Ġlimited":2680,"Ġbaked":2681,"Ġvegetarian":2682,"Ġpulled":2683,"fully":2684,"Ġround":2685,"Ġdesserts":2686,"Ġclot":2687,"ancy":2688,"Ġbuilding":2689,"Ġimag":2690,"Ġfall":2691,"Ġdanc":2692,"Ġeng":2693,"Ġemployee":2694,"Ġcompliment":2695,"nand":2696,"Ġpm":2697,"cess":2698,"you":2699,"Ġfee":2700,"Ġfilling":2701,"nin":2702,"Ġdont":2703,"Ġchain":2704,"Ġperhaps":2705,"sm":2706,"Ġshower":2707,"Ġstanding":2708,"Ġusing":2709,"Ġotherwise":2710,"Ġsales":2711,"Ġprompt":2712,"ants":2713,"jor":2714,"Ġfire":2715,"Ġlines":2716,"Ġcharl":2717,"pite":2718,"Ġ45":2719,"Ġmovie":2720,"?\\\"":2721,"Ġbother":2722,"Ġpet":2723,"Ġhig":2724,"ggy":2725,"Ġbooth":2726,"Ġsolid":2727,".)":2728,"for":2729,"Ġhy":2730,"ĠĠĠ":2731,"Ġpour":2732,"Ġexpectations":2733,"Ġestablishment":2734,"nall":2735,"Ġdisgust":2736,"Ġpicked":2737,"Ġcocktail":2738,"Ġmem":2739,"Ġoutdoor":2740,"tle":2741,"Ġorgan":2742,"Ġmins":2743,"hip":2744,"stairs":2745,"Ġdrunk":2746,"Ġyeah":2747,"Ġglasses":2748,"min":2749,"Ġ24":2750,"don":2751,"Ġsepar":2752,"Ġshows":2753,"Ġfruit":2754,"Ġsurprise":2755,"Ġmajor":2756,"ari":2757,"Ġconvers":2758,"Ġprime":2759,"Ġoriginal":2760,"Ġsplit":2761,"Ġbon":2762,"Ġbunch":2763,"Ġgel":2764,"Ġram":2765,"amed":2766,"Ġcovered":2767,"Ġchecking":2768,"light":2769,"Ġsend":2770,"Ġword":2771,"Ġguac":2772,"urity":2773,"Ġome":2774,"Ġodd":2775,"Ġwash":2776,"arch":2777,"Ġeff":2778,"Ġdesert":2779,"Ġreading":2780,"erg":2781,"Ġpad":2782,"Ġbeat":2783,"Ġnotice":2784,"Ġupd":2785,"Ġcompared":2786,"aming":2787,"Ġbrand":2788,"whel":2789,"Ġfut":2790,"Ġdisappointment":2791,"Ġstores":2792,"Ġnormally":2793,"Ġbars":2794,"Ġsugar":2795,"Ġtrans":2796,"Ġgotten":2797,"lfriend":2798,"Ġmushrooms":2799,"Ġturkey":2800,"icing":2801,"Ġimpro":2802,"Ġgroupon":2803,"Ġfrequ":2804,"Ġheat":2805,"Ġknowledge":2806,"Ġtrave":2807,"standing":2808,"Ġissues":2809,"Ġguests":2810,"ying":2811,"itas":2812,"Ġslice":2813,"Ġelev":2814,"aring":2815,"Ġgym":2816,"Ġmistake":2817,"14":2818,"Ġbal":2819,"Ġvisiting":2820,"Ġaddition":2821,"Ġaccommod":2822,"Ġid":2823,"Ġgirlfriend":2824,"mbers":2825,"ok":2826,"Ġentertain":2827,"ucks":2828,"real":2829,"Ġcombo":2830,"Ġactual":2831,"Ġhotels":2832,"Ġshops":2833,"ton":2834,"ption":2835,"ka":2836,"nge":2837,"oring":2838,"Ġwebs":2839,"Ġreturning":2840,"Ġsummer":2841,"acks":2842,"Ġknows":2843,"Ġspecif":2844,"ware":2845,"Ġtow":2846,"Ġnic":2847,"Ġsalon":2848,"Ġimport":2849,"Ġsecurity":2850,"Ġbottom":2851,"Ġreservations":2852,"Ġnicely":2853,"Ġapart":2854,"Ġspring":2855,"Ġpancakes":2856,"Ġafford":2857,"Ġlear":2858,"nour":2859,"Ġveggie":2860,"Ġfuture":2861,"Ġver":2862,"icure":2863,"owing":2864,"Ġmini":2865,"Ġslices":2866,"Ġcheaper":2867,"nafter":2868,"aft":2869,"hile":2870,"Ġmag":2871,"Ġsomewhat":2872,"Ġlovely":2873,"Ġpersonal":2874,"Ġstuffed":2875,"Ġign":2876,"Ġfilet":2877,"Ġmont":2878,"Ġorange":2879,"Ġshut":2880,"Ġconst":2881,"Ġ50":2882,"cohol":2883,"ĠĠĠĠĠĠĠĠ":2884,"Ġspinach":2885,"nh":2886,"Ġlad":2887,"Ġquiet":2888,"Ġcoupon":2889,"Ġexplained":2890,"Ġalone":2891,"Ġdiffic":2892,"Ġ40":2893,"Ġsmooth":2894,"fi":2895,"Ġsauces":2896,"Ġwebsite":2897,"Ġnearly":2898,"Ġstraight":2899,"Ġdidnt":2900,"Ġcap":2901,"Ġtonight":2902,"Ġgames":2903,"Ġenc":2904,"Ġtickets":2905,"Ġchr":2906,"Ġcraving":2907,"Ġindian":2908,"ara":2909,"Ġkick":2910,"Ġscall":2911,"Ġsmoke":2912,"Ġanswer":2913,"Ġbaby":2914,"ses":2915,"Ġiced":2916,"Ġsoggy":2917,"ppy":2918,"Ġgold":2919,"Ġquestions":2920,"ina":2921,"Ġmult":2922,"Ġcashier":2923,"work":2924,"Ġvers":2925,"otte":2926,"Ġang":2927,"ters":2928,"Ġdeep":2929,"Ġanymore":2930,"Ġeast":2931,"ident":2932,"Ġprocess":2933,"Ġhoping":2934,"Ġcomplaint":2935,"Ġlacking":2936,"Ġhigher":2937,"ek":2938,"Ġoutstanding":2939,"Ġworks":2940,"Ġmachine":2941,"Ġmodern":2942,"Ġspa":2943,"ivered":2944,"Ġjap":2945,"Ġshared":2946,"Ġtexture":2947,"bt":2948,"Ġband":2949,"Ġfail":2950,"Ġservices":2951,"Ġphot":2952,"Ġattend":2953,"Ġfunny":2954,"aim":2955,"Ġcrap":2956,"Ġgeneral":2957,"Ġgenerous":2958,"Ġsimilar":2959,"Ġchic":2960,"Ġdespite":2961,"Ġhelped":2962,"Ġpossible":2963,"Ġcharlotte":2964,"Ġahead":2965,"ren":2966,"Ġbooked":2967,"11":2968,"Ġsick":2969,"Ġdump":2970,"Ġmembers":2971,"Ġspice":2972,"Ġenv":2973,"Ġdelivered":2974,"fu":2975,"ken":2976,"Ġgroc":2977,"Ġhub":2978,"Ġchew":2979,"Ġentr":2980,"Ġgift":2981,"nfood":2982,"Ġincredibly":2983,"Ġsense":2984,"Ġnach":2985,"Ġlounge":2986,"Ġbartenders":2987,"ued":2988,"uss":2989,"Ġliving":2990,"tern":2991,"Ġnormal":2992,"ma":2993,"Ġ*":2994,"Ġrich":2995,"oss":2996,"Ġapple":2997,"Ġwrap":2998,"Ġdouble":2999,"Ġdifficult":3000,"nnot":3001,"Ġking":3002,"Ġroad":3003,"\\\",":3004,"Ġcrunch":3005,"Ġagree":3006,"lier":3007,"Ġsituation":3008,"Ġomelet":3009,"Ġform":3010,"Ġstory":3011,"aded":3012,"Ġalcohol":3013,"Ġrub":3014,"Ġvac":3015,"Ġcontact":3016,"alet":3017,"ency":3018,"Ġsports":3019,"Ġtax":3020,"Ġfol":3021,"lly":3022,"oni":3023,"stem":3024,"Ġprior":3025,"ches":3026,"Ġsister":3027,"Ġfab":3028,"vert":3029,"Ġchill":3030,"Ġfeet":3031,"Ġlocations":3032,"Ġrefund":3033,"Ġpositive":3034,"Ġdisgusting":3035,"Ġmemor":3036,"Ġer":3037,"Ġhip":3038,"Ġfoods":3039,"Ġquestion":3040,"Ġsystem":3041,"irt":3042,"Ġ100":3043,"Ġvibe":3044,"ially":3045,"Ġsched":3046,"Ġplaced":3047,"Ġjuice":3048,"Ġseasoned":3049,"cale":3050,"coming":3051,"Ġarrive":3052,"Ġwomen":3053,"back":3054,"Ġten":3055,"Ġir":3056,"iled":3057,"ago":3058,"Ġtreated":3059,"Ġcele":3060,"Ġ#":3061,"Ġwat":3062,"reat":3063,"Ġdoct":3064,"Ġcaes":3065,"ipped":3066,"agio":3067,"Ġproducts":3068,"pro":3069,"Ġnec":3070,"ushed":3071,"ached":3072,"Ġskin":3073,"pet":3074,"ruct":3075,"Ġped":3076,"Ġhol":3077,"Ġpract":3078,"13":3079,"Ġhadn":3080,"Ġra":3081,"Ġcomment":3082,"apped":3083,"Ġmeats":3084,"Ġbasic":3085,"Ġdollar":3086,"Ġcocktails":3087,"Ġsoda":3088,"Ġru":3089,"Ġcause":3090,"Ġprevious":3091,"ists":3092,"Ġariz":3093,"Ġwest":3094,"Ġmart":3095,"anese":3096,"Ġmonday":3097,"Ġimagine":3098,"yond":3099,"Ġlamb":3100,"Ġknown":3101,"Ġexperienced":3102,"Ġopp":3103,"Ġcow":3104,"Ġden":3105,"Ġdesign":3106,"Ġcreamy":3107,"Ġmissing":3108,"fl":3109,"Ġtues":3110,"Ġfancy":3111,"Ġoverly":3112,"Ġdrinking":3113,"Ġstep":3114,"Ġcleaning":3115,"Ġdamn":3116,"Ġalright":3117,"Ġscen":3118,"Ġaccept":3119,"Ġtomatoes":3120,"tt":3121,"Ġmc":3122,"Ġpress":3123,"ams":3124,"Ġhash":3125,"Ġarizona":3126,"bb":3127,"Ġbak":3128,"Ġmeh":3129,"Ġride":3130,"Ġreturned":3131,"Ġinterior":3132,"Ġfigured":3133,"Ġtheater":3134,"Ġbeyond":3135,"Ġmilk":3136,"Ġconversation":3137,"over":3138,"Ġbellagio":3139,"Ġnegative":3140,"95":3141,"Ġtend":3142,"Ġpitt":3143,"iron":3144,"Ġlived":3145,"Ġwedding":3146,"40":3147,"ero":3148,"Ġsafe":3149,"Ġperform":3150,"nst":3151,"Ġwood":3152,"Ġattemp":3153,"Ġench":3154,"Ġdeser":3155,"Ġpen":3156,"ones":3157,"ope":3158,"Ġtelling":3159,"Ġregard":3160,"Ġsucks":3161,"Ġeverywhere":3162,"iple":3163,"Ġyogurt":3164,"Ġton":3165,"Ġstuck":3166,"nia":3167,"Ġ25":3168,"nnow":3169,"Ġannoying":3170,"Ġroasted":3171,"aa":3172,"that":3173,"Ġwilling":3174,"Ġmill":3175,"well":3176,"Ġthroughout":3177,"Ġwalls":3178,"Ġjuicy":3179,"now":3180,"Ġtub":3181,"Ġtofu":3182,"Ġspect":3183,"Ġovercooked":3184,"Ġpatr":3185,"Ġcontain":3186,"Ġolder":3187,"Ġstarb":3188,"Ġmachines":3189,"Ġtuesday":3190,"Ġ!":3191,"Ġham":3192,"Ġcance":3193,"Ġpizzas":3194,"Ġnoodle":3195,"Ġenchil":3196,"inger":3197,"Ġnap":3198,"Ġheavy":3199,"Ġrav":3200,"this":3201,"Ġadvert":3202,"Ġshit":3203,"Ġvegetables":3204,"Ġfolks":3205,"cr":3206,"val":3207,"Ġol":3208,"ower":3209,"Ġlikely":3210,"Ġpurchase":3211,"Ġhealthy":3212,"Ġpitts":3213,"Ġben":3214,"Ġcart":3215,"Ġcompet":3216,"Ġvisits":3217,"Ġhomemade":3218,"Ġdifference":3219,"Ġticket":3220,"Ġsil":3221,"Ġrepe":3222,"Ġupgr":3223,"ifor":3224,"Ġproblems":3225,"Ġcommun":3226,"ob":3227,"Ġduck":3228,"Ġhall":3229,"Ġmoving":3230,"Ġblood":3231,"Ġrealized":3232,"Ġladies":3233,"Ġcelebr":3234,"vis":3235,"Ġmood":3236,"aki":3237,"Ġoffers":3238,"Ġbites":3239,"100":3240,"Ġsig":3241,"rew":3242,"Ġsurprising":3243,"Ġincredible":3244,"Ġtrust":3245,"Ġcalifor":3246,"Ġpresentation":3247,"omb":3248,"Ġkill":3249,"Ġconcept":3250,"Ġbrew":3251,"Ġcasual":3252,"nfirst":3253,"gest":3254,"Ġoy":3255,"Ġbes":3256,"Ġstate":3257,"Ġraw":3258,"Ġbuffets":3259,"Ġcirc":3260,"fish":3261,"Ġsan":3262,"Ġbean":3263,"Ġgod":3264,"Ġspots":3265,"Ġsleep":3266,"den":3267,"Ġtough":3268,"Ġthird":3269,"amole":3270,"amari":3271,"Ġdead":3272,"Ġge":3273,"Ġeyes":3274,"fficient":3275,"rap":3276,"zy":3277,"Ġboard":3278,"Ġdrop":3279,"nalso":3280,"ironment":3281,"Ġcalifornia":3282,"Ġstom":3283,"Ġstood":3284,"45":3285,"Ġx":3286,"ase":3287,"Ġinformed":3288,"Ġstarbucks":3289,"Ġtopped":3290,"Ġyork":3291,"Ġspac":3292,"Ġranch":3293,"Ġpittsburgh":3294,"ynn":3295,"orn":3296,"Ġrush":3297,"Ġlucky":3298,"mi":3299,"ume":3300,"Ġmenus":3301,"Ġkey":3302,"Ġaccess":3303,"Ġnorth":3304,"nes":3305,"Ġself":3306,"Ġmultiple":3307,"Ġbou":3308,"imi":3309,"Ġuncom":3310,"Ġcarry":3311,"Ġpurchased":3312,"rent":3313,"Ġmir":3314,"Ġund":3315,"Ġavoc":3316,"Ġclothes":3317,"Ġguacamole":3318,"kin":3319,"ser":3320,"Ġlat":3321,"acular":3322,"iders":3323,"Ġjack":3324,"Ġsmile":3325,"edible":3326,"Ġopening":3327,"Ġadditional":3328,"nyou":3329,"Ġexperiences":3330,"Ġsatisfied":3331,"Ġlegs":3332,"Ġenvironment":3333,"Ġwont":3334,"Ġmother":3335,"Ġda":3336,"otle":3337,"ays":3338,"Ġrand":3339,"Ġvan":3340,"Ġgravy":3341,"Ġspoke":3342,"fr":3343,"nto":3344,"Ġsea":3345,"Ġintern":3346,"Ġseparate":3347,"Ġpatrons":3348,"Ġpictures":3349,"Ġfabulous":3350,"nany":3351,"hered":3352,"Ġmi":3353,"Ġpeppers":3354,"Ġappreciate":3355,"orge":3356,"Ġclaim":3357,"Ġcourt":3358,"Ġdoubt":3359,"Ġmargarita":3360,"Ġtraditional":3361,"cher":3362,"terday":3363,"Ġpleased":3364,"cial":3365,"Ġfigure":3366,"Ġcomplimentary":3367,"Ġstomach":3368,"?)":3369,"dge":3370,"Ġhoney":3371,"Ġfry":3372,"Ġdef":3373,"Ġconv":3374,"Ġthemselves":3375,"Ġopted":3376,"Ġcooking":3377,"Ġcalamari":3378,"oh":3379,"Ġles":3380,"Ġmeatball":3381,"Ġbigger":3382,"uits":3383,"Ġcat":3384,"Ġtons":3385,"iling":3386,"Ġdecide":3387,"Ġlobby":3388,"Ġjapanese":3389,"Ġnachos":3390,"Ġwynn":3391,"Ġstage":3392,"Ġlisten":3393,"Ġcupcakes":3394,"!\\\"":3395,"aven":3396,"Ġaz":3397,"Ġbone":3398,"Ġdu":3399,"Ġdim":3400,"Ġhi":3401,"sters":3402,"Ġdoors":3403,"Ġmontreal":3404,"Ġgrocery":3405,"Ġvalet":3406,"Ġground":3407,"Ġpopular":3408,"Ġfrequent":3409,"lt":3410,"Ġbf":3411,"oop":3412,"Ġpricing":3413,"Ġshell":3414,"Ġmoment":3415,"Ġemail":3416,"Ġcarne":3417,"Ġregister":3418,"Ġdepart":3419,"Ġrequested":3420,"Ġfault":3421,"Ġparticularly":3422,"Ġspectacular":3423,"ru":3424,"Ġfly":3425,"Ġchat":3426,"Ġsav":3427,"Ġques":3428,"Ġdelight":3429,"Ġrecent":3430,"Ġvarious":3431,"Ġdeliver":3432,"Ġvenue":3433,"Ġentrance":3434,"ait":3435,"ioli":3436,"Ġsou":3437,"Ġboring":3438,"Ġpriv":3439,"Ġyesterday":3440,"Ġramen":3441,"Ġtart":3442,"Ġfountain":3443,"Ġcant":3444,"Ġdre":3445,"ains":3446,"Ġpersonally":3447,"Ġupset":3448,"inary":3449,"Ġcakes":3450,"usion":3451,"adas":3452,"Ġsearch":3453,"Ġflav":3454,"Ġdriving":3455,"Ġrealize":3456,"Ġlights":3457,"Ġur":3458,"rence":3459,"aced":3460,"Ġrings":3461,"Ġrange":3462,"ults":3463,"Ġburnt":3464,"???":3465,"Ġgenerally":3466,"Ġdonuts":3467,"Ġcontinue":3468,"Ġcuis":3469,"Ġknowledgeable":3470,"Ġhur":3471,"ceed":3472,"illy":3473,"Ġtruck":3474,"Ġimpressive":3475,"Ġearlier":3476,"rated":3477,"Ġcatch":3478,"itch":3479,"Ġheaven":3480,"ills":3481,"inks":3482,"Ġjoke":3483,"Ġstrange":3484,"Ġcomplaints":3485,"Ġchewy":3486,"sing":3487,"asty":3488,"ained":3489,"!!\\":3490,"Ġcrack":3491,"Ġbris":3492,"Ġcompar":3493,"Ġdropped":3494,"Ġaffordable":3495,"Ġrandom":3496,"ba":3497,"outs":3498,"Ġsuite":3499,"Ġbroth":3500,"Ġdoctor":3501,"Ġavocado":3502,"none":3503,"Ġ+":3504,"Ġom":3505,"Ġbright":3506,"Ġgas":3507,"Ġshame":3508,"Ġtalked":3509,"Ġcountry":3510,"Ġchipotle":3511,"Ġsadly":3512,"Ġmashed":3513,"Ġris":3514,"Ġwanting":3515,"Ġskip":3516,"Ġlux":3517,"Ġscallops":3518,"Ġsold":3519,"Ġvegan":3520,"Ġthru":3521,"Ġnearby":3522,"Ġbeds":3523,"Ġspending":3524,"Ġchrist":3525,"Ġfixed":3526,"Ġchildren":3527,"Ġuncomfortable":3528,"ls":3529,"off":3530,"Ġdough":3531,"pper":3532,"illas":3533,"Ġune":3534,"Ġpicture":3535,"Ġcolle":3536,"Ġimportant":3537,"Ġversion":3538,"Ġhubby":3539,"Ġgard":3540,"Ġrom":3541,"Ġexpl":3542,"Ġpassed":3543,"Ġinterested":3544,"Ġbisc":3545,"onna":3546,"ential":3547,"Ġkore":3548,"Ġdev":3549,"Ġminim":3550,"ime":3551,"ring":3552,"Ġdj":3553,"alap":3554,"staff":3555,"Ġrob":3556,"Ġmarin":3557,"Ġsteaks":3558,"Ġreceipt":3559,"exp":3560,"mas":3561,"Ġagainst":3562,"Ġcleaned":3563,"Ġparent":3564,"ories":3565,"Ġgoodness":3566,"Ġterri":3567,"Ġchicago":3568,"Ġsix":3569,"Ġsized":3570,"Ġfurn":3571,"Ġfell":3572,"Ġmoist":3573,"Ġshouldn":3574,"Ġfeels":3575,"mmmm":3576,"nwhat":3577,"Ġsupport":3578,"Ġbagel":3579,"Ġpolite":3580,"Ġmot":3581,"Ġdispl":3582,"Ġselections":3583,"gu":3584,"sp":3585,"wood":3586,"imate":3587,"Ġbud":3588,"Ġyellow":3589,"Ġsuggested":3590,"Ġcloser":3591,"Ġallowed":3592,"Ġmer":3593,"etch":3594,"Ġdisco":3595,"aves":3596,"Ġpean":3597,"Ġfinding":3598,"Ġrefres":3599,"Ġprovided":3600,"Ġdetail":3601,"nne":3602,"reed":3603,"Ġareas":3604,"Ġfeed":3605,"Ġpoints":3606,"Ġshoes":3607,"Ġbroken":3608,"Ġenglish":3609,"old":3610,"Ġpink":3611,"Ġtoilet":3612,"lling":3613,"Ġbelly":3614,"Ġbrisket":3615,"bing":3616,"Ġmile":3617,"Ġbecome":3618,"Ġasada":3619,"chi":3620,"Ġbathrooms":3621,"Ġsounds":3622,"Ġoccasion":3623,"ugh":3624,"unt":3625,"Ġlab":3626,"Ġhid":3627,"Ġplastic":3628,"Ġcocon":3629,"Ġtasteless":3630,"Ġbelow":3631,"Ġbuying":3632,"Ġwaffle":3633,"gm":3634,"ker":3635,"nat":3636,"nhow":3637,"Ġgiant":3638,"Ġlarger":3639,"Ġbottles":3640,"Ġbanana":3641,"Ġreminded":3642,"rd":3643,"ss":3644,"Ġack":3645,"using":3646,"ield":3647,"Ġexpress":3648,"eria":3649,"Ġdiner":3650,"Ġseasoning":3651,"Ġdepend":3652,"Ġpossibly":3653,"Ġtortilla":3654,"Ġpu":3655,"Ġpud":3656,"rop":3657,"Ġsetting":3658,"ded":3659,"inos":3660,"Ġdad":3661,"oof":3662,"Ġliqu":3663,"Ġsliders":3664,"Ġparts":3665,"Ġscreen":3666,"Ġprovide":3667,"Ġadmit":3668,"Ġstrawberry":3669,"Ġcuisine":3670,"Ġcoconut":3671,"por":3672,"Ġtower":3673,"Ġdan":3674,"arr":3675,"ution":3676,"Ġefficient":3677,"Ġhey":3678,"Ġwords":3679,"Ġoverwhel":3680,"azz":3681,"Ġdriver":3682,"Ġwaitresses":3683,"Ġgent":3684,"ica":3685,"ilt":3686,"......":3687,"Ġthrow":3688,"Ġzero":3689,"Ġcaesar":3690,"Ġolive":3691,"bit":3692,"Ġah":3693,"Ġboo":3694,"eno":3695,"Ġinit":3696,"Ġjalap":3697,"Ġviet":3698,"Ġnoise":3699,"aged":3700,"Ġmozz":3701,"Ġcalling":3702,"Ġreceive":3703,"Ġkorean":3704,"Ġacknow":3705,"nha":3706,"Ġbatter":3707,"Ġonto":3708,"alo":3709,"Ġjam":3710,"Ġtired":3711,"Ġwhether":3712,"Ġtrou":3713,"Ġchamp":3714,"Ġmayo":3715,"Ġputting":3716,"Ġtempe":3717,"Ġmat":3718,"Ġdine":3719,"Ġthurs":3720,"Ġjud":3721,"Ġserious":3722,"Ġagreed":3723,"appy":3724,"Ġbiggest":3725,"Ġhighlight":3726,"Ġbody":3727,"Ġreasonably":3728,"Ġsmoked":3729,"Ġlacked":3730,"Ġaccount":3731,"Ġrefills":3732,"Ġcombination":3733,"mar":3734,"aybe":3735,"Ġjump":3736,"Ġprint":3737,"Ġfavorites":3738,"Ġcookies":3739,"Ġdancing":3740,"Ġland":3741,"Ġnotch":3742,"Ġchile":3743,"Ġsuck":3744,"Ġvide":3745,"amel":3746,"Ġscrew":3747,"Ġfollowing":3748,"Ġta":3749,"Ġstated":3750,"Ġproceed":3751,"Ġgives":3752,"Ġstock":3753,"Ġdrove":3754,"//":3755,"ives":3756,"Ġfur":3757,"Ġpita":3758,"ney":3759,"Ġhanging":3760,"Ġfare":3761,"Ġmand":3762,"aster":3763,"Ġrot":3764,"Ġfrust":3765,"Ġtruff":3766,"ference":3767,"Ġwifi":3768,"Ġcars":3769,"onse":3770,"Ġawhile":3771,"Ġworkers":3772,"Ġfight":3773,"Ġdive":3774,"Ġnasty":3775,"ott":3776,"Ġmissed":3777,"burger":3778,"Ġrespect":3779,"Ġmadison":3780,"Ġhype":3781,"Ġupdate":3782,"Ġbakery":3783,"fet":3784,"hic":3785,"look":3786,"Ġ/":3787,"Ġbened":3788,"Ġcin":3789,"Ġmgm":3790,"Ġnat":3791,"ille":3792,"Ġpros":3793,"ashimi":3794,"Ġtypes":3795,"Ġproperty":3796,"Ġscene":3797,"pes":3798,"round":3799,"Ġut":3800,"Ġbay":3801,"Ġpump":3802,"Ġanim":3803,"Ġsucked":3804,"Ġwaiters":3805,"Ġaria":3806,"Ġill":3807,"thy":3808,"Ġteam":3809,"Ġlighting":3810,"Ġeffort":3811,"list":3812,"Ġtest":3813,"Ġdent":3814,"icks":3815,"Ġwants":3816,"action":3817,"Ġenjoyable":3818,"Ġbase":3819,"Ġplayed":3820,"ashion":3821,"Ġconfir":3822,"Ġmargaritas":3823,"Ġsurprisingly":3824,"cle":3825,"pan":3826,"Ġsoooo":3827,"Ġgem":3828,"Ġloves":3829,"izing":3830,"Ġparties":3831,"Ġbasket":3832,"Ġsuppose":3833,"Ġresponse":3834,"Ġsquare":3835,"Ġwaffles":3836,"Ġinternet":3837,"bage":3838,"gi":3839,"Ġpound":3840,"Ġmember":3841,"Ġjer":3842,"Ġmango":3843,"Ġjoh":3844,"Ġlaid":3845,"Ġignored":3846,"Ġthursday":3847,"rant":3848,"Ġtowards":3849,"ital":3850,"iture":3851,"Ġbuck":3852,"Ġpatient":3853,"Ġconfused":3854,"Ġcheesec":3855,"Ġtravel":3856,"Ġcrunchy":3857,"Ġholid":3858,"Ġparents":3859,"ral":3860,"ram":3861,"there":3862,"Ġmeant":3863,"Ġplatter":3864,"Ġattract":3865,"Ġcurrent":3866,"Ġpromptly":3867,"can":3868,"rup":3869,"ux":3870,"Ġsale":3871,"unks":3872,"Ġvent":3873,"Ġwhenever":3874,"Ġcaramel":3875,"Ġclassic":3876,"Ġmelted":3877,"Ġtraining":3878,"Ġaccommodating":3879,"Ġgarden":3880,"Ġtar":3881,"Ġsong":3882,"ishing":3883,"ended":3884,"ager":3885,"Ġimpression":3886,"Ġrelative":3887,"Ġsubst":3888,"Ġannoyed":3889,"Ġreplace":3890,"Ġgentle":3891,"16":3892,"fy":3893,"ject":3894,"mart":3895,"Ġweak":3896,"Ġhook":3897,"izes":3898,"Ġrestroom":3899,"Ġcrappy":3900,"Ġbuffalo":3901,"Ġexcuse":3902,"Ġgyro":3903,"Ġproperly":3904,"Ġsample":3905,"Ġimprove":3906,"Ġspacious":3907,"oke":3908,"with":3909,"ley":3910,"Ġcozy":3911,"Ġwriting":3912,"Ġglut":3913,"Ġsounded":3914,"Ġsyrup":3915,"Ġnecess":3916,"Ġdepartment":3917,"Ġfurniture":3918,"Ġvietnam":3919,"Ġbenedict":3920,"ki":3921,"Ġwide":3922,"Ġdig":3923,"Ġvo":3924,"Ġspoon":3925,"Ġcheesecake":3926,"Ġweather":3927,"Ġthor":3928,"Ġant":3929,"Ġupstairs":3930,"Ġcomfort":3931,"Ġremo":3932,"law":3933,"tf":3934,"Ġpair":3935,"Ġcosm":3936,"Ġsliced":3937,"Ġflavorless":3938,"Ġreser":3939,"Ġassist":3940,"Ġpoorly":3941,"Ġpedicure":3942,"llo":3943,"ura":3944,"star":3945,"ipe":3946,"Ġmark":3947,"Ġperfection":3948,"Ġmiles":3949,"Ġbrocc":3950,"Ġansw":3951,"Ġrelaxing":3952,"kward":3953,"Ġsoo":3954,"Ġsashimi":3955,"Ġthri":3956,"Ġthrew":3957,"ste":3958,"Ġourselves":3959,"Ġ200":3960,"nov":3961,"Ġcontro":3962,"ify":3963,"Ġconcer":3964,"Ġgelato":3965,"Ġelevator":3966,"Ġbesides":3967,"nesday":3968,"war":3969,"Ġgreek":3970,"Ġbudd":3971,"Ġpretz":3972,"Ġdeals":3973,"Ġ:(":3974,"Ġwelcome":3975,"Ġnicer":3976,"Ġpudding":3977,"Ġvietnamese":3978,"Ġuns":3979,"....\\":3980,"noh":3981,"Ġhole":3982,"Ġpolicy":3983,"mus":3984,"nbe":3985,"Ġfashion":3986,"icked":3987,"Ġaside":3988,"Ġserves":3989,"Ġdecis":3990,"Ġknowing":3991,"Ġtrash":3992,"Ġblock":3993,"efully":3994,"Ġbringing":3995,"Ġbags":3996,"Ġdressed":3997,"Ġweekends":3998,"Ġhidden":3999,"75":4000,"://":4001,"do":4002,"Ġfoc":4003,"Ġcig":4004,"Ġdiet":4005,"Ġwrapped":4006,"Ġmustard":4007,"Ġlayout":4008,"Ġthorough":4009,"hy":4010,"she":4011,"Ġgonna":4012,"antic":4013,"Ġdozen":4014,"Ġdem":4015,"Ġtex":4016,"Ġneedless":4017,"Ġcarpet":4018,"Ġmicrow":4019,"Ġbroccoli":4020,"nic":4021,"yal":4022,"Ġcro":4023,"Ġconn":4024,"Ġ18":4025,"Ġenjoying":4026,"Ġspecialty":4027,"Ġowned":4028,"Ġlaugh":4029,"Ġexception":4030,"Ġtreatment":4031,"--------":4032,"Ġwatched":4033,"Ġdisplay":4034,"cut":4035,"iest":4036,"Ġess":4037,"Ġgorge":4038,"ication":4039,"etian":4040,"Ġdipping":4041,"Ġawkward":4042,"Ġwednesday":4043,"Ġinformation":4044,"Ġsilver":4045,"ural":4046,"Ġshocked":4047,"Ġvip":4048,"anda":4049,"Ġcorpor":4050,"Ġtapas":4051,"Ġvanilla":4052,"of":4053,"oz":4054,"Ġtill":4055,"Ġnobody":4056,"Ġunlike":4057,"Ġpotential":4058,"Ġdried":4059,"Ġsurround":4060,"Ġcups":4061,"****":4062,"Ġappeal":4063,"Ġupscale":4064,"Ġwelcoming":4065,"Ġmartini":4066,"60":4067,"ners":4068,"ining":4069,"Ġneither":4070,"Ġflag":4071,"Ġblah":4072,"arella":4073,"Ġmanaged":4074,"Ġoffering":4075,"Ġlocals":4076,"Ġsmelled":4077,"Ġappeared":4078,"Ġapologized":4079,"donal":4080,"Ġoysters":4081,"nhowever":4082,"bec":4083,"rs":4084,"Ġgall":4085,"iche":4086,"Ġring":4087,"Ġspan":4088,"Ġbrother":4089,"Ġcarr":4090,"Ġwindows":4091,"Ġclosing":4092,"Ġvenetian":4093,"Ġcondition":4094,"Ġvacation":4095,"Ġmemorable":4096,"ttp":4097,"Ġrefreshing":4098,"bl":4099,"Ġpas":4100,"Ġbegan":4101,"Ġshi":4102,"ational":4103,"eries":4104,"Ġdelish":4105,"Ġassum":4106,"Ġpackage":4107,"Ġcosts":4108,"Ġpolish":4109,"Ġshuttle":4110,"ndon":4111,"Ġstale":4112,"Ġexamp":4113,"Ġsum":4114,"Ġcandy":4115,"berries":4116,"Ġhelping":4117,"Ġhardly":4118,"Ġwild":4119,"Ġclubs":4120,"Ġgorgeous":4121,"edy":4122,"ators":4123,"ises":4124,"Ġsoy":4125,"nthat":4126,"Ġdeg":4127,"Ġcraft":4128,"ressed":4129,"Ġgrat":4130,"Ġhandle":4131,"Ġbeginning":4132,"Ġcher":4133,"Ġmild":4134,"Ġpiss":4135,"Ġhaw":4136,"Ġhosp":4137,"urance":4138,"Ġwax":4139,"Ġlef":4140,"Ġchanges":4141,"Ġturns":4142,"Ġcards":4143,"Ġreplaced":4144,"ergy":4145,"Ġmcdonal":4146,"Ġinexp":4147,"Ġsocial":4148,"ified":4149,"Ġadvice":4150,"club":4151,"Ġdaily":4152,"Ġfurther":4153,"gs":4154,"sc":4155,"ugg":4156,"Ġfav":4157,"Ġcamp":4158,"Ġthats":4159,"Ġspag":4160,"Ġcomfy":4161,"Ġbecame":4162,"........":4163,"Ġrefused":4164,"quee":4165,"who":4166,"Ġpurp":4167,"Ġproduce":4168,"Ġtoasted":4169,"Ġcollege":4170,"tr":4171,"Ġoper":4172,"Ġgoo":4173,"alay":4174,"Ġhist":4175,"Ġanyways":4176,"ording":4177,".\\\"\\":4178,"Ġ90":4179,"Ġrelatively":4180,"Ġgluten":4181,",\\\"":4182,"bly":4183,"nel":4184,"Ġstup":4185,"Ġleaves":4186,"Ġdraw":4187,"affic":4188,"Ġcharges":4189,"Ġsteakhouse":4190,"Ġreception":4191,"board":4192,"Ġmacar":4193,"Ġpaint":4194,"Ġdistance":4195,"namon":4196,"Ġlefto":4197,"18":4198,"mer":4199,"Ġhaha":4200,"Ġisland":4201,"Ġgreens":4202,"Ġfeat":4203,"Ġvehic":4204,"Ġvegetable":4205,"hetti":4206,"Ġmozzarella":4207,"Ġfans":4208,"Ġcuc":4209,"Ġanytime":4210,"Ġtraffic":4211,"Ġparmes":4212,"Ġinstall":4213,"Ġtrendy":4214,"Ġesp":4215,"Ġfloors":4216,"Ġfacility":4217,"Ġconstantly":4218,"Ġbudget":4219,"even":4220,"pri":4221,"tw":4222,"Ġaf":4223,"Ġpine":4224,"ism":4225,"Ġlime":4226,"Ġvod":4227,"Ġmuff":4228,"nevery":4229,"Ġappreciated":4230,"!).":4231,"Ġgamb":4232,"Ġult":4233,"Ġrain":4234,"Ġamong":4235,"ipment":4236,"Ġbasil":4237,"Ġtemper":4238,"Ġmeatballs":4239,"Ġexample":4240,"eed":4241,"Ġ..":4242,"Ġtheme":4243,"Ġbank":4244,"Ġrese":4245,"ury":4246,"Ġtips":4247,"Ġunpro":4248,"Ġrecommendation":4249,"Ġ:-":4250,"Ġyelpers":4251,"Ġexceptional":4252,"Ġtvs":4253,"Ġluckily":4254,"Ġbomb":4255,"Ġev":4256,"Ġelect":4257,"Ġarr":4258,"apple":4259,"Ġhappens":4260,"Ġstarting":4261,"Ġrepair":4262,"Ġenchiladas":4263,"Ġpeanut":4264,"liness":4265,"nno":4266,"Ġave":4267,"Ġpush":4268,"Ġlv":4269,"Ġna":4270,"Ġwet":4271,"Ġvol":4272,"Ġarg":4273,"Ġdownstairs":4274,"lied":4275,"Ġcell":4276,"friendly":4277,"Ġambience":4278,"Ġstupid":4279,"Ġtan":4280,"Ġsno":4281,"Ġsang":4282,"Ġmes":4283,"Ġmatch":4284,"Ġpin":4285,"Ġfort":4286,"Ġexec":4287,"Ġcoke":4288,"useum":4289,"Ġbrus":4290,"teous":4291,"Ġslaw":4292,"Ġfamous":4293,"Ġsmoking":4294,"Ġlower":4295,"Ġconcert":4296,"Ġruined":4297,"Ġprivate":4298,"Ġomg":4299,"Ġspaghetti":4300,"Ġparmesan":4301,"hib":4302,"Ġemb":4303,"Ġbeware":4304,"keep":4305,"Ġshred":4306,"amble":4307,"Ġcalls":4308,"Ġenter":4309,"Ġshake":4310,"Ġtells":4311,"Ġcookie":4312,"Ġinsurance":4313,"Ġgrease":4314,"Ġeventually":4315,"Ġpalace":4316,"Ġequipment":4317,"Ġballs":4318,"met":4319,"wor":4320,"Ġtheat":4321,"Ġsus":4322,"Ġcasinos":4323,"Ġreasons":4324,"Ġcourteous":4325,"Ġgroups":4326,"Ġchristmas":4327,"boy":4328,"Ġfiance":4329,"Ġwear":4330,"anted":4331,"Ġtire":4332,"Ġfrank":4333,"Ġsomehow":4334,"Ġdisp":4335,"Ġunl":4336,"Ġinclude":4337,"Ġheaded":4338,"Ġdescribe":4339,"Ġtortillas":4340,"ught":4341,"Ġtag":4342,"Ġip":4343,"Ġmuseum":4344,"Ġgotta":4345,"Ġsprouts":4346,"Ġtempura":4347,"Ġpresented":4348,"Ġbike":4349,"Ġcirque":4350,"Ġvideo":4351,"Ġvodka":4352,"35":4353,"bel":4354,"kins":4355,"mo":4356,"tte":4357,"Ġoven":4358,"Ġcreme":4359,"Ġhopefully":4360,"Ġtypically":4361,"ivid":4362,"Ġcinnamon":4363,"yy":4364,"Ġage":4365,"Ġaud":4366,"Ġfu":4367,"Ġlazy":4368,"Ġweight":4369,"Ġwhis":4370,"Ġlead":4371,"Ġfees":4372,"ards":4373,"Ġcrepe":4374,"Ġreport":4375,"Ġviews":4376,"Ġclassy":4377,"Ġrental":4378,"Ġoccasions":4379,"Ġentertainment":4380,"Ġdecision":4381,"Ġcorporate":4382,"Ġunprofessional":4383,"asp":4384,"hern":4385,"Ġrad":4386,"Ġrushed":4387,"outine":4388,"Ġrip":4389,"Ġcomplained":4390,"Ġgarage":4391,"Ġsticky":4392,"Ġrespond":4393,"Ġhummus":4394,"Ġpec":4395,"Ġger":4396,"Ġlap":4397,"antage":4398,"uled":4399,"!!!!!":4400,"isted":4401,"istent":4402,"Ġinstruct":4403,"Ġpicky":4404,"Ġconsistently":4405,"Ġcontinued":4406,"Ġcheesy":4407,"Ġspecifically":4408,"good":4409,"Ġwan":4410,"Ġobs":4411,"Ġcry":4412,"Ġdar":4413,"atic":4414,"Ġcommon":4415,"Ġcompan":4416,"Ġstandards":4417,"www":4418,"Ġtowels":4419,"Ġravioli":4420,"Ġtruffle":4421,"ped":4422,"Ġfet":4423,"Ġmal":4424,"Ġrat":4425,"see":4426,"ama":4427,"ignon":4428,"char":4429,"Ġpromot":4430,"Ġtrouble":4431,"Ġtam":4432,"Ġwtf":4433,"Ġoli":4434,"Ġketch":4435,"ntheir":4436,"itten":4437,"Ġvel":4438,"Ġpastries":4439,"Ġjoe":4440,"Ġsignature":4441,"Ġconsistent":4442,"Ġcupcake":4443,"Ġschedule":4444,"Ġcowork":4445,"Ġrepeat":4446,"Ġhurry":4447,"Ġketchup":4448,"book":4449,"ces":4450,"fc":4451,"su":4452,"uine":4453,"Ġ;":4454,"irts":4455,"nthen":4456,"agne":4457,"umber":4458,"Ġbreast":4459,"Ġextensive":4460,"Ġsnack":4461,"Ġpepperoni":4462,"Ġlearned":4463,"Ġupgrade":4464,"Ġproceeded":4465,"Ġhawai":4466,"==":4467,"chan":4468,"Ġwines":4469,"Ġrarely":4470,"Ġgoat":4471,"Ġchunks":4472,"amer":4473,"Ġfem":4474,"Ġpickles":4475,"Ġquesad":4476,"bert":4477,"gy":4478,"ric":4479,"Ġsizes":4480,"ented":4481,"Ġlikes":4482,"aple":4483,"Ġshowing":4484,"Ġhanded":4485,"Ġregret":4486,"Ġpointed":4487,"Ġindivid":4488,"Ġdecorated":4489,"mbur":4490,"Ġpleasantly":4491,"Ġappear":4492,"Ġposted":4493,"Ġvelve":4494,",\\":4495,"free":4496,"obe":4497,"uity":4498,"Ġske":4499,"anch":4500,"omen":4501,"ette":4502,"uster":4503,"Ġparis":4504,"Ġincludes":4505,"Ġorganized":4506,"Ġspecific":4507,"Ġattempt":4508,"Ġbass":4509,"oured":4510,"ingers":4511,"Ġsole":4512,"Ġsake":4513,"Ġdraft":4514,"Ġways":4515,"Ġfully":4516,"Ġesc":4517,"Ġmassive":4518,"Ġholiday":4519,"men":4520,"Ġcross":4521,"Ġalot":4522,"Ġtires":4523,"!!!\\":4524,"Ġofferings":4525,"200":4526,"bby":4527,"Ġgf":4528,"llen":4529,"Ġaltern":4530,"aint":4531,"ola":4532,"achi":4533,"Ġfinal":4534,"Ġpatty":4535,"Ġsoups":4536,"Ġseconds":4537,"ncons":4538,"Ġbooths":4539,"dr":4540,"Ġtad":4541,"Ġmountain":4542,"Ġlame":4543,"Ġhambur":4544,"Ġrenov":4545,"Ġspread":4546,"ils":4547,"Ġcomput":4548,"order":4549,"Ġaccording":4550,"place":4551,"Ġspeaking":4552,"Ġcontrol":4553,"Ġay":4554,"ria":4555,"Ġindust":4556,"Ġmelt":4557,"Ġtemperature":4558,"Ġtab":4559,"Ġsi":4560,"Ġsens":4561,"inburgh":4562,"Ġdust":4563,"lli":4564,"Ġrang":4565,"une":4566,"Ġclient":4567,"Ġcharging":4568,"ission":4569,"Ġlearn":4570,"Ġjohn":4571,"Ġshredded":4572,"lings":4573,"npr":4574,"yle":4575,"erous":4576,"Ġgal":4577,"Ġlit":4578,"acy":4579,"Ġsex":4580,"Ġlock":4581,"esto":4582,"Ġrolled":4583,"Ġplanning":4584,"Ġadvantage":4585,"Ġedinburgh":4586,"Ġridiculously":4587,"Ġlatte":4588,"Ġdiscovered":4589,"nut":4590,"ror":4591,"Ġsite":4592,"Ġfuck":4593,"Ġhint":4594,"Ġsam":4595,"Ġbull":4596,"Ġstarts":4597,"Ġunderwhel":4598,"Ġkeeping":4599,"plant":4600,"Ġfatty":4601,"Ġmeeting":4602,"nanyway":4603,"Ġinexpensive":4604,"corn":4605,"mont":4606,"Ġtou":4607,"Ġdude":4608,"Ġginger":4609,"Ġsucc":4610,"Ġfridge":4611,"hank":4612,"Ġdrag":4613,"Ġbroke":4614,"Ġburritos":4615,"Ġconsistency":4616,"Ġgolden":4617,"Ġregardless":4618,"Ġbounc":4619,"rr":4620,"yaki":4621,"Ġoct":4622,"Ġfest":4623,"roll":4624,"Ġvine":4625,"Ġmanner":4626,"Ġbumm":4627,"umbs":4628,"Ġcompare":4629,"eriod":4630,"Ġstarving":4631,"Ġcents":4632,"Ġrubber":4633,"nre":4634,"Ġiron":4635,"onven":4636,"eled":4637,"Ġneat":4638,"ouses":4639,"soci":4640,"Ġresult":4641,"Ġbagels":4642,"ground":4643,"Ġpublic":4644,"Ġspanish":4645,"bar":4646,"Ġ0":4647,"Ġcree":4648,"Ġpure":4649,"Ġpower":4650,"Ġdom":4651,"Ġwasnt":4652,"resso":4653,"ula":4654,"Ġmanicure":4655,"itted":4656,"Ġunp":4657,"Ġdined":4658,"Ġhorri":4659,"Ġlisted":4660,"Ġchefs":4661,"loin":4662,"Ġflavored":4663,"Ġremoved":4664,"Ġ@":4665,"Ġpint":4666,"ito":4667,"anas":4668,"Ġep":4669,"Ġein":4670,"ala":4671,"Ġrow":4672,"Ġmary":4673,"Ġcourses":4674,"Ġmidnight":4675,"Ġ80":4676,"Ġobvious":4677,"Ġswitch":4678,"Ġsprink":4679,"Ġadvance":4680,"Ġluke":4681,"Ġoriginally":4682,"Ġtarget":4683,"Ġvehicle":4684,"belie":4685,"down":4686,"ium":4687,"Ġedible":4688,"Ġmignon":4689,"Ġwearing":4690,"verse":4691,"Ġassoci":4692,"Ġcrit":4693,"Ġchand":4694,"Ġcreative":4695,"Ġundercooked":4696,"Ġchopped":4697,"ific":4698,"Ġinsane":4699,"Ġsticks":4700,"Ġchampagne":4701,"ique":4702,"west":4703,"Ġale":4704,"Ġwing":4705,"Ġber":4706,"ased":4707,"Ġperiod":4708,"mel":4709,"Ġchop":4710,"Ġfellow":4711,"Ġ19":4712,"Ġgras":4713,"Ġtrack":4714,"nok":4715,"Ġrecord":4716,"Ġweekday":4717,"Ġplanet":4718,"Ġselling":4719,"Ġapartment":4720,"Ġbiscuits":4721,"Ġminimum":4722,"Ġdepending":4723,"Ġconnect":4724,"Ġpineapple":4725,"Ġfemale":4726,".,":4727,"cing":4728,"town":4729,"Ġoz":4730,"Ġfle":4731,"Ġdest":4732,"Ġheck":4733,"Ġload":4734,"ila":4735,"ortun":4736,"agus":4737,"Ġ16":4738,"Ġbump":4739,"Ġinconven":4740,"Ġkinds":4741,"Ġrefer":4742,"Ġkidding":4743,"Ġtreats":4744,"Ġblend":4745,"Ġmandalay":4746,"Ġanswered":4747,"Ġtexas":4748,"bu":4749,"hop":4750,"jun":4751,"rom":4752,"Ġder":4753,"itan":4754,"ushing":4755,"Ġbeverage":4756,"rious":4757,"iding":4758,"Ġworry":4759,"Ġflow":4760,"Ġribe":4761,"Ġcharac":4762,"Ġcoupons":4763,"ngreat":4764,"nwhile":4765,"Ġterms":4766,"Ġmuss":4767,"Ġfreak":4768,"Ġlaw":4769,"paragus":4770,"Ġceiling":4771,"amped":4772,"Ġhearing":4773,"iliar":4774,"Ġreminds":4775,"Ġayce":4776,"cent":4777,"des":4778,"Ġmint":4779,"uth":4780,"Ġrough":4781,"Ġcaught":4782,"nivers":4783,"Ġadvent":4784,"ograp":4785,"nwith":4786,"Ġwarrant":4787,"Ġsett":4788,"mbered":4789,"Ġfaj":4790,"Ġfootball":4791,"Ġmembership":4792,"Ġopportun":4793,"fic":4794,"Ġmail":4795,"oriz":4796,"Ġwasted":4797,"Ġhes":4798,"Ġtight":4799,"Ġcand":4800,"Ġcraw":4801,"Ġholly":4802,"Ġ60":4803,"Ġremembered":4804,"Ġpromised":4805,"Ġolives":4806,"Ġfond":4807,"Ġnope":4808,"arant":4809,"Ġannivers":4810,"Ġexhib":4811,"Ġlose":4812,"Ġamen":4813,"Ġvet":4814,"Ġhass":4815,"Ġcrepes":4816,"Ġimposs":4817,"Ġcontract":4818,"Ġcomplex":4819,"Ġdirectly":4820,"Ġorganic":4821,"Ġpressure":4822,"Ġbloody":4823,"17":4824,"ause":4825,"bon":4826,"lin":4827,"Ġcous":4828,"Ġcult":4829,"Ġstone":4830,"entially":4831,"Ġasparagus":4832,"Ġlie":4833,"Ġoverp":4834,"Ġfluff":4835,"Ġknock":4836,"Ġslot":4837,"Ġsteamed":4838,"Ġbothered":4839,"Ġpatron":4840,"Ġinsp":4841,"Ġmessage":4842,"Ġcomparison":4843,"Ġbang":4844,"icated":4845,"Ġhill":4846,"iles":4847,"Ġfreshly":4848,"Ġchanging":4849,"Ġeggplant":4850,"Ġindoor":4851,"Ġinviting":4852,"Ġstudents":4853,"Ġencount":4854,"Ġribeye":4855,"gre":4856,"Ġoily":4857,"Ġfingers":4858,"Ġpesto":4859,"oted":4860,"Ġum":4861,"Ġugh":4862,"Ġkni":4863,"Ġspices":4864,"Ġrose":4865,"Ġcoast":4866,"Ġdiss":4867,"Ġaddress":4868,"uced":4869,"Ġnumerous":4870,"Ġfollowed":4871,"Ġsigns":4872,"Ġfrustr":4873,"80":4874,"ban":4875,"hill":4876,"nan":4877,"Ġich":4878,"ingy":4879,"Ġnamed":4880,"lets":4881,"Ġsaved":4882,"Ġkim":4883,"atered":4884,"Ġapps":4885,"Ġhopes":4886,"Ġcuts":4887,"Ġstylist":4888,"Ġcentral":4889,"Ġphoto":4890,"Ġcancel":4891,"Ġmesa":4892,"Ġvelvet":4893,"bread":4894,"rely":4895,"Ġfi":4896,"oud":4897,"ico":4898,"eth":4899,"Ġloaded":4900,"Ġsup":4901,"Ġabs":4902,"Ġchedd":4903,"hanks":4904,"Ġenergy":4905,"Ġbrings":4906,"Ġreviewers":4907,"Ġsecret":4908,"Ġswim":4909,"ival":4910,"Ġinvol":4911,"Ġbuns":4912,"Ġelevators":4913,"Ġhistory":4914,"Ġwise":4915,"otto":4916,"etic":4917,"illed":4918,"Ġshirt":4919,"Ġblow":4920,"Ġrecommendations":4921,"Ġwatery":4922,"owder":4923,"Ġindeed":4924,"Ġboys":4925,"Ġprepare":4926,"Ġclosest":4927,"Ġrelaxed":4928,"Ġnyc":4929,"Ġliquor":4930,"Ġpissed":4931,"Ġleftovers":4932,"Ġanniversary":4933,"Ġimpossible":4934,"Ġteri":4935,"Ġbust":4936,"Ġfork":4937,"ourmet":4938,"Ġpreviously":4939,"Ġaware":4940,"Ġcrew":4941,"Ġends":4942,"Ġsuperb":4943,"anced":4944,"Ġfarm":4945,"Ġfrost":4946,"Ġbrowns":4947,"hetic":4948,"Ġdumplings":4949,"nun":4950,"top":4951,"nde":4952,"lle":4953,"Ġnuts":4954,"Ġrave":4955,"ilant":4956,"Ġprepar":4957,"Ġ21":4958,"000":4959,"ngood":4960,"Ġsubway":4961,"Ġautom":4962,"Ġcorrectly":4963,"Ġcontainer":4964,"Ġsavory":4965,"Ġsangria":4966,"Ġindividual":4967,"Ġcul":4968,"..\\":4969,"Ġgoods":4970,"Ġchur":4971,"ession":4972,"Ġcanned":4973,"Ġade":4974,"Ġbits":4975,"Ġshape":4976,"Ġfreez":4977,"Ġrespons":4978,"Ġentertaining":4979,"Ġphotos":4980,"Ġdeserve":4981,"Ġromantic":4982,"Ġpretzel":4983,"Ġcheddar":4984,"maybe":4985,"nhe":4986,"Ġsout":4987,"Ġore":4988,"Ġtooth":4989,"Ġgn":4990,"llar":4991,"ache":4992,"Ġsuit":4993,"amic":4994,"Ġadult":4995,"Ġdiv":4996,"Ġboba":4997,"Ġadding":4998,"ances":4999,"Ġsigned":5000,"Ġsnacks":5001,"Ġapologize":5002,"Ġstudio":5003,"Ġbonus":5004,"Ġfailed":5005,"Ġcircus":5006,"Ġoverwhelming":5007,"Ġcucumber":5008,"Ġhesit":5009,"Ġhollywood":5010,"after":5011,"ream":5012,"ingly":5013,"eng":5014,"Ġnames":5015,"sey":5016,"Ġprof":5017,"imited":5018,"Ġhasn":5019,"Ġunbelie":5020,"Ġnightclub":5021,"Ġnews":5022,"Ġdealers":5023,"Ġcomplaining":5024,"Ġbowling":5025,"Ġclasses":5026,"Ġsuggestions":5027,"Ġmushy":5028,"Ġconsisted":5029,"Ġaccompan":5030,"Ġfilthy":5031,"Ġappropri":5032,"Ġdescribed":5033,"Ġeffect":5034,"Ġnapkins":5035,"rupt":5036,"nnext":5037,"Ġreserved":5038,"Ġthoroughly":5039,"Ġmussels":5040,"orizo":5041,"Ġfake":5042,"Ġpig":5043,"Ġshots":5044,"Ġsuff":5045,"agna":5046,"Ġminus":5047,"udes":5048,"Ġblo":5049,"Ġblast":5050,"finitely":5051,"Ġwritten":5052,"mmm":5053,"Ġhappening":5054,"Ġqueen":5055,"Ġclothing":5056,"Ġsubstit":5057,"Ġnecessary":5058,"Ġcherry":5059,"Ġgambling":5060,"Ġwanna":5061,"__":5062,"sal":5063,"Ġsink":5064,"Ġba":5065,"ano":5066,"Ġyuck":5067,"abi":5068,"Ġvou":5069,"Ġquant":5070,"Ġflo":5071,"Ġvend":5072,"Ġeats":5073,"Ġscoop":5074,"Ġchecks":5075,"Ġcolors":5076,"hhhh":5077,"Ġlemonade":5078,"Ġscheduled":5079,"Ġgentleman":5080,"Ġbuddy":5081,"gas":5082,"some":5083,"Ġmr":5084,"Ġphen":5085,"Ġhom":5086,"rod":5087,"ppers":5088,"Ġours":5089,"imately":5090,"Ġrio":5091,"Ġblown":5092,"Ġlets":5093,"Ġremod":5094,"Ġfactor":5095,"Ġregularly":5096,"Ġmessed":5097,"Ġsatisfying":5098,"Ġconvenience":5099,"Ġmiso":5100,"Ġespresso":5101,"ilantro":5102,"tes":5103,"was":5104,"Ġya":5105,"ayed":5106,"icht":5107,"Ġcajun":5108,"Ġblame":5109,"Ġcarp":5110,"Ġcustard":5111,"nyes":5112,"Ġpicking":5113,"ucked":5114,"Ġcooks":5115,"Ġassort":5116,"Ġevents":5117,"Ġenchilada":5118,"Ġmicrowave":5119,"Ġhassle":5120,"Ġunbeliev":5121,"aly":5122,"Ġbul":5123,"Ġfal":5124,"Ġliking":5125,"Ġchorizo":5126,"Ġflaming":5127,"Ġprogr":5128,"Ġafterwards":5129,"Ġphilly":5130,"Ġstrips":5131,"Ġwarning":5132,"Ġwarned":5133,"Ġgenuine":5134,"Ġmainly":5135,"Ġassume":5136,"Ġsuggestion":5137,"Ġsmells":5138,"Ġangel":5139,"Ġpractice":5140,"Ġdenny":5141,"Ġcommunity":5142,"Ġjudge":5143,"bow":5144,"food":5145,"mond":5146,"nger":5147,"oon":5148,"set":5149,"Ġpill":5150,"Ġgroom":5151,"Ġstack":5152,"ids":5153,"quate":5154,"Ġcoles":5155,"Ġyelling":5156,"nwell":5157,"Ġshoot":5158,"Ġ:)\\":5159,"Ġpools":5160,"Ġearth":5161,"Ġartich":5162,"Ġapology":5163,"Ġconvention":5164,"Ġrisotto":5165,"Ġsooo":5166,"Ġcroiss":5167,"Ġcomputer":5168,"Ġphenomen":5169,"Ġcoleslaw":5170,"bet":5171,"nup":5172,"when":5173,"Ġ)":5174,"Ġbist":5175,"Ġcilantro":5176,"Ġmim":5177,"asure":5178,"Ġbeach":5179,"Ġlos":5180,"ively":5181,"Ġdiners":5182,"Ġresults":5183,"Ġpleasure":5184,"Ġmeaning":5185,"Ġfitness":5186,"ik":5187,"mary":5188,"njust":5189,"~~":5190,"Ġtrop":5191,"Ġsight":5192,"Ġsca":5193,"Ġbis":5194,"ndo":5195,"ndred":5196,"Ġcop":5197,"Ġnet":5198,"otic":5199,"Ġeh":5200,"Ġrated":5201,"Ġrasp":5202,"Ġnois":5203,"Ġ$$":5204,"olitan":5205,"Ġguarant":5206,"Ġentered":5207,"Ġhundred":5208,"Ġfamiliar":5209,"Ġpancake":5210,"Ġvoice":5211,"Ġconcerned":5212,"Ġcigare":5213,"Ġembarr":5214,"Ġdarn":5215,".)\\":5216,"ho":5217,"Ġcit":5218,"Ġcub":5219,"uted":5220,"Ġhend":5221,"ules":5222,"Ġoverlook":5223,"raid":5224,"Ġpastry":5225,"Ġfreaking":5226,"Ġeasier":5227,"nific":5228,"Ġbowls":5229,"Ġafraid":5230,"Ġhamburger":5231,"Ġopportunity":5232,"Ġamenities":5233,"Ġfluffy":5234,"Ġsouthern":5235,"Ġsir":5236,"Ġlake":5237,"atives":5238,"uses":5239,"Ġrede":5240,"although":5241,"Ġsaving":5242,"ilities":5243,"Ġdonut":5244,"Ġcran":5245,"Ġwalmart":5246,"Ġcheckout":5247,"Ġsky":5248,"Ġskills":5249,"Ġpock":5250,"Ġboxes":5251,"Ġirrit":5252,"Ġquesadilla":5253,"Ġteriyaki":5254,"Ġvoucher":5255,"gant":5256,"Ġfinger":5257,"Ġpedi":5258,"isco":5259,"Ġyard":5260,"ians":5261,"lease":5262,"Ġheading":5263,"Ġshortly":5264,"Ġmilks":5265,"attered":5266,"Ġahi":5267,"nother":5268,"rict":5269,"Ġive":5270,"Ġcou":5271,"har":5272,"Ġinn":5273,"Ġchi":5274,"Ġclients":5275,"ips":5276,"assed":5277,"Ġdownhill":5278,"iano":5279,"Ġmanagers":5280,"Ġregul":5281,"nwill":5282,"Ġcrowds":5283,"Ġlasagna":5284,"Ġauto":5285,"Ġbenef":5286,"ja":5287,"Ġbat":5288,"Ġgum":5289,"especially":5290,"Ġinedible":5291,"style":5292,"Ġasks":5293,"Ġjim":5294,"ilies":5295,"Ġquar":5296,"Ġeverybody":5297,"Ġ14":5298,"Ġbraz":5299,"Ġbuzz":5300,"Ġsmart":5301,"aze":5302,"Ġhimself":5303,"Ġfactory":5304,"Ġkeeps":5305,"Ġhaircut":5306,"Ġprescri":5307,"Ġjoints":5308,"Ġmovies":5309,"Ġtourist":5310,"Ġapproached":5311,"Ġsmoothie":5312,"Ġhospital":5313,"Ġphenomenal":5314,"iri":5315,"Ġdas":5316,"Ġgourmet":5317,"Ġstates":5318,"Ġsubs":5319,"Ġvia":5320,"osit":5321,"Ġmani":5322,"Ġbuilt":5323,"Ġgrap":5324,"Ġdownside":5325,"aza":5326,"Ġnowhere":5327,"Ġdesired":5328,"Ġintrod":5329,"Ġfacial":5330,"Ġgrabbed":5331,"Ġstrawberries":5332,"Ġconstruct":5333,"Ġsilverware":5334,"ais":5335,"hot":5336,"yelp":5337,"Ġtherap":5338,"Ġbals":5339,"Ġfed":5340,"Ġstations":5341,"entious":5342,"Ġbutt":5343,"Ġlives":5344,"Ġtil":5345,"Ġrac":5346,"Ġrack":5347,"Ġrocks":5348,"ction":5349,"Ġconference":5350,"Ġdisappe":5351,"Ġshar":5352,"Ġarrival":5353,"Ġappetite":5354,"Ġrepres":5355,"Ġexciting":5356,"nche":5357,"Ġpreferred":5358,"Ġmajority":5359,"Ġbalance":5360,"Ġmagic":5361,"Ġpractically":5362,"Ġdeserves":5363,"Ġdream":5364,"Ġacknowled":5365,"Ġacknowledge":5366,"Ġanimal":5367,"Ġunlimited":5368,"!),":5369,"fried":5370,"Ġtail":5371,"Ġfool":5372,"iring":5373,"Ġsemi":5374,"Ġexam":5375,"Ġgolf":5376,"Ġcares":5377,"Ġens":5378,"Ġbrule":5379,"Ġchallen":5380,"Ġadults":5381,"Ġbitter":5382,"gged":5383,"Ġremain":5384,"Ġcutting":5385,"Ġshock":5386,"Ġwondering":5387,"Ġassured":5388,"Ġpopcorn":5389,"Ġdelightful":5390,"Ġpurpose":5391,"Ġhenderson":5392,"'.":5393,"cor":5394,"ga":5395,"Ġtall":5396,"Ġsin":5397,"rend":5398,"Ġpile":5399,"Ġgate":5400,"Ġnut":5401,"Ġforced":5402,"Ġheld":5403,"Ġjac":5404,"cho":5405,"ands":5406,"Ġwaitstaff":5407,"Ġpeak":5408,"Ġunac":5409,"Ġtakeout":5410,"Ġworkout":5411,"Ġcleanliness":5412,"nshe":5413,"Ġhandful":5414,"Ġfoie":5415,"Ġdirt":5416,"Ġbooks":5417,"Ġfalling":5418,"Ġangry":5419,"Ġadvertised":5420,"Ġconfirm":5421,"rami":5422,"Ġnaan":5423,"Ġfajitas":5424,"Ġbistro":5425,"Ġnoisy":5426,"Ġmilksha":5427,"Ġbrazil":5428,"Ġses":5429,"Ġpants":5430,"Ġtopping":5431,"Ġbever":5432,"Ġnoon":5433,"aging":5434,"Ġmoj":5435,"Ġtele":5436,"Ġgranted":5437,"Ġstellar":5438,"Ġcheeseburger":5439,"Ġincons":5440,"Ġstands":5441,"Ġlaug":5442,"Ġreplied":5443,"Ġcostco":5444,"Ġinfo":5445,"dden":5446,"Ġchina":5447,"Ġoccup":5448,"npros":5449,"Ġmicha":5450,"Ġinitial":5451,"Ġtheatre":5452,"Ġredeem":5453,"!)\\":5454,"fo":5455,"great":5456,"hus":5457,"uch":5458,"hest":5459,"Ġmars":5460,"happy":5461,"orrow":5462,"Ġnig":5463,"Ġstairs":5464,"Ġseared":5465,"Ġexist":5466,"hers":5467,"Ġlover":5468,"ously":5469,"osas":5470,"Ġriver":5471,"Ġstew":5472,"Ġsharing":5473,"Ġsurf":5474,"Ġremove":5475,"Ġhello":5476,"Ġcuz":5477,"Ġirish":5478,"Ġcelebrate":5479,"Ġindustry":5480,"Ġadequate":5481,"19":5482,"bac":5483,"nj":5484,"Ġwatered":5485,"Ġbird":5486,"Ġpip":5487,"Ġpoutine":5488,"alled":5489,"about":5490,"ague":5491,"Ġteen":5492,"Ġtrips":5493,"Ġacted":5494,"Ġwrote":5495,"Ġletting":5496,"Ġunderst":5497,"nwould":5498,"Ġcurt":5499,"Ġinsisted":5500,"Ġcheeses":5501,"Ġdetails":5502,"Ġsettled":5503,"Ġbalsamic":5504,"24":5505,"bers":5506,"di":5507,"nme":5508,"ras":5509,"rane":5510,"Ġq":5511,"Ġtang":5512,"Ġamp":5513,"hand":5514,"Ġgamble":5515,"arily":5516,"Ġinch":5517,"aches":5518,"Ġmechan":5519,"Ġloyal":5520,"Ġeverytime":5521,"Ġdecl":5522,"Ġsweat":5523,"Ġpastrami":5524,"Ġcorned":5525,"Ġhousekeep":5526,"Ġcalories":5527,"Ġspeed":5528,"Ġmais":5529,"chet":5530,"Ġcabbage":5531,"Ġdescription":5532,"Ġstudent":5533,"Ġwinter":5534,"Ġfrequently":5535,"Ġpenny":5536,"azzo":5537,"Ġvinegar":5538,"Ġquantity":5539,"nhere":5540,"table":5541,"zed":5542,"erk":5543,"Ġpor":5544,"Ġwhipped":5545,"Ġalmond":5546,"Ġeveryday":5547,"Ġarm":5548,"Ġbuds":5549,"Ġ35":5550,"Ġpartner":5551,"ups":5552,"Ġcreate":5553,"Ġparm":5554,"nser":5555,"Ġhunt":5556,"Ġintimate":5557,"Ġinvest":5558,"umbled":5559,"Ġchatting":5560,"Ġnatural":5561,"Ġpumpkin":5562,"Ġhookah":5563,"Ġchandler":5564,"husi":5565,"Ġcert":5566,"Ġmale":5567,"Ġmatt":5568,"organ":5569,"estern":5570,"ata":5571,"Ġhire":5572,"Ġjew":5573,"Ġric":5574,"Ġkobe":5575,"aker":5576,"Ġgrow":5577,"sidered":5578,"Ġaccident":5579,"ivity":5580,"Ġequally":5581,"Ġneck":5582,"Ġthrilled":5583,"Ġdegrees":5584,"Ġfortun":5585,"Ġgerman":5586,"Ġrubbery":5587,"Ġoverpow":5588,"Ġgnoc":5589,"Ġprogram":5590,"Ġbrulee":5591,"cas":5592,"mal":5593,"rus":5594,"view":5595,"Ġ....":5596,"Ġwit":5597,"Ġsom":5598,"Ġsquee":5599,"erie":5600,"Ġmax":5601,"Ġled":5602,"amis":5603,"Ġroot":5604,"again":5605,"Ġcramped":5606,"Ġsalted":5607,"Ġblond":5608,"Ġentering":5609,"Ġthrown":5610,"Ġbasis":5611,"Ġbusinesses":5612,"Ġheads":5613,"Ġbedroom":5614,"Ġconfusing":5615,"phone":5616,"Ġaccommodate":5617,"Ġmarinated":5618,"Ġmarinara":5619,"warm":5620,"Ġhawaiian":5621,"Ġflamingo":5622,"eak":5623,"iff":5624,"Ġist":5625,"ades":5626,"Ġchick":5627,"anded":5628,"Ġqual":5629,"Ġprote":5630,"Ġconsidered":5631,"Ġteeth":5632,"Ġtwist":5633,"Ġslo":5634,"Ġsteep":5635,"Ġhonor":5636,"Ġthankfully":5637,"Ġdancers":5638,"Ġencour":5639,"Ġomelette":5640,"Ġreceptionist":5641,"ranean":5642,"chetta":5643,"car":5644,"iers":5645,"ios":5646,"sized":5647,"ties":5648,"Ġgord":5649,"Ġhurt":5650,"Ġsoap":5651,"Ġvs":5652,"Ġswear":5653,"Ġexchan":5654,"Ġskimp":5655,"Ġ70":5656,"Ġentirely":5657,"iterranean":5658,"Ġpalms":5659,"Ġupgraded":5660,"Ġcharacter":5661,"70":5662,"hr":5663,"vd":5664,"Ġ!!":5665,"Ġtoward":5666,"atory":5667,"Ġstat":5668,"Ġplaza":5669,"Ġroof":5670,"Ġsudden":5671,"Ġquote":5672,"Ġpear":5673,"Ġtequ":5674,"Ġbreath":5675,"Ġscore":5676,"Ġretail":5677,"Ġtermin":5678,"Ġfamilies":5679,"Ġpoker":5680,"ceptable":5681,"Ġdiscuss":5682,"Ġmetal":5683,"Ġamerica":5684,"Ġupdated":5685,"Ġbalcon":5686,"Ġformer":5687,"Ġrepeated":5688,"Ġcomparable":5689,"Ġinitially":5690,"giving":5691,"Ġalternative":5692,"Ġsuccess":5693,"Ġknife":5694,"Ġfrosting":5695,"Ġregulars":5696,"Ġil":5697,"nda":5698,"Ġpit":5699,"lls":5700,"ental":5701,"econd":5702,"Ġalas":5703,"Ġspir":5704,"Ġchunk":5705,"opolitan":5706,"icky":5707,"ava":5708,"Ġburned":5709,"Ġenthusi":5710,"Ġkeys":5711,"Ġpayment":5712,"????":5713,"Ġstret":5714,"Ġmaint":5715,"Ġrequired":5716,"love":5717,"Ġrefilled":5718,"Ġholding":5719,"Ġsamples":5720,"Ġeastern":5721,"Ġacceptable":5722,"Ġtao":5723,"Ġcurrently":5724,"Ġgratuity":5725,"Ġmcdonald":5726,"Ġmuffin":5727,"Ġappropriate":5728,"uary":5729,"Ġtir":5730,"inis":5731,"Ġfusion":5732,"asy":5733,"Ġpitc":5734,"only":5735,"Ġwheat":5736,"Ġtimely":5737,"Ġcole":5738,"Ġqui":5739,"Ġgrass":5740,"Ġslots":5741,"Ġspoiled":5742,"Ġsnow":5743,"ugs":5744,"Ġeyebr":5745,"Ġflavour":5746,"Ġexplan":5747,"Ġterrific":5748,"Ġraspberry":5749,"gress":5750,"Ġscale":5751,"Ġcast":5752,"oust":5753,"Ġtos":5754,"Ġded":5755,"ora":5756,"Ġbeha":5757,"Ġyounger":5758,"Ġkara":5759,"Ġallerg":5760,"Ġworried":5761,"Ġwhatso":5762,"Ġprin":5763,"Ġcontemp":5764,"Ġclue":5765,"erial":5766,"Ġunw":5767,"Ġwalks":5768,"Ġcreated":5769,"Ġparked":5770,"Ġgarbage":5771,"Ġtomorrow":5772,"Ġplanned":5773,"Ġscramb":5774,"Ġmediterranean":5775,"Ġtaxi":5776,"Ġskinny":5777,"Ġoppos":5778,"Ġsignific":5779,"Ġsoul":5780,"Ġterribly":5781,"Ġappealing":5782,"Ġwarranty":5783,"Ġculinary":5784,"Ġbisque":5785,"Ġsesame":5786,"amisu":5787,"gle":5788,"mark":5789,"nfin":5790,"son":5791,"viche":5792,"Ġais":5793,"Ġfir":5794,"Ġcater":5795,"Ġgun":5796,"Ġmein":5797,"Ġclams":5798,"weet":5799,"Ġminor":5800,"Ġteas":5801,"Ġgran":5802,"Ġchains":5803,"Ġcleaner":5804,"Ġhelps":5805,"Ġincre":5806,"Ġrefri":5807,"Ġcomplement":5808,"Ġinteract":5809,"Ġartist":5810,"attoo":5811,"?!?!":5812,"Ġshift":5813,"Ġassumed":5814,"Ġaccompanied":5815,"Ġbeverages":5816,"Ġnigiri":5817,"Ġgnocchi":5818,"awn":5819,"done":5820,"ez":5821,"eze":5822,"ius":5823,"Ġboss":5824,"Ġpies":5825,"otta":5826,"acc":5827,"ading":5828,"Ġplans":5829,"season":5830,"ques":5831,"Ġcode":5832,"Ġpremi":5833,"Ġ13":5834,"inte":5835,"Ġphys":5836,"Ġfinishing":5837,"Ġexplaining":5838,"Ġestablishments":5839,"Ġmedical":5840,"Ġchris":5841,"Ġcaesars":5842,"Ġjalapeno":5843,"Ġsongs":5844,"Ġflowers":5845,"Ġmichael":5846,"Ġwhatsoever":5847,"form":5848,"jack":5849,"mare":5850,"Ġtattoo":5851,"Ġlang":5852,"itary":5853,"utto":5854,"Ġinqu":5855,"Ġforth":5856,"Ġoutr":5857,"Ġrout":5858,"Ġfruits":5859,"Ġshirts":5860,"Ġsuites":5861,"Ġcaf":5862,"Ġtray":5863,"Ġadjust":5864,"Ġattached":5865,"Ġincor":5866,"Ġmarch":5867,"Ġcareful":5868,"ucc":5869,"Ġweekly":5870,"Ġholl":5871,"tenance":5872,"ciutto":5873,"while":5874,"Ġdeposit":5875,"Ġscreaming":5876,"Ġpalazzo":5877,"hhh":5878,"Ġdeter":5879,"Ġlevels":5880,"pected":5881,"nanother":5882,"Ġunacceptable":5883,"Ġopposite":5884,"fa":5885,"uzz":5886,"Ġdated":5887,"Ġwashing":5888,"Ġyu":5889,"Ġstad":5890,"Ġstocked":5891,"Ġrap":5892,"Ġvill":5893,"Ġflour":5894,"agn":5895,"erior":5896,"Ġunfriendly":5897,"Ġpersonality":5898,"Ġfunky":5899,"Ġtops":5900,"Ġarriving":5901,"Ġskill":5902,"Ġfaster":5903,"Ġedge":5904,"Ġlugg":5905,"nmaybe":5906,"Ġattended":5907,"Ġaudience":5908,"der":5909,"nk":5910,"Ġwip":5911,"Ġcouch":5912,"Ġpanda":5913,"Ġnicht":5914,"Ġtho":5915,"Ġstating":5916,"ability":5917,"Ġoverrated":5918,"\\\"\\":5919,"Ġbra":5920,"Ġunf":5921,"Ġherself":5922,"Ġthrowing":5923,"Ġsupervis":5924,"Ġhandled":5925,"Ġfremont":5926,"Ġappointments":5927,"Ġsorts":5928,"Ġsampler":5929,"Ġbananas":5930,"Ġhuman":5931,"Ġimproved":5932,"Ġshitty":5933,"Ġlabor":5934,"market":5935,"Ġprosciutto":5936,"neverything":5937,"Ġresearch":5938,"Ġhousekeeping":5939,"Ġtiramisu":5940,"gly":5941,"lich":5942,"nis":5943,"sy":5944,"tast":5945,"ndr":5946,"Ġfile":5947,"Ġdave":5948,"Ġgil":5949,"Ġwashed":5950,"Ġthus":5951,"Ġstress":5952,"Ġaspect":5953,"Ġtipped":5954,"Ġchow":5955,"resh":5956,"Ġgreatest":5957,"Ġflu":5958,"Ġmold":5959,"Ġunus":5960,"Ġstarters":5961,"Ġputs":5962,"ordered":5963,"Ġbooking":5964,"Ġtrained":5965,"Ġadmission":5966,"Ġdirection":5967,"ĠĠĠĠĠĠĠĠĠĠĠĠĠĠĠĠ":5968,"Ġsearching":5969,"Ġrisk":5970,"Ġminimal":5971,"Ġbooze":5972,"Ġantic":5973,"Ġbruschetta":5974,"Ġ;)":5975,"sorry":5976,"really":5977,"Ġpoured":5978,"Ġtots":5979,"ening":5980,"anes":5981,"Ġhttp":5982,"urate":5983,"Ġcobb":5984,"Ġdece":5985,"Ġquoted":5986,"Ġcomped":5987,"uding":5988,"Ġnightmare":5989,"Ġaction":5990,"nsome":5991,"---":5992,"Ġ2013":5993,"Ġplayers":5994,"Ġruns":5995,"Ġmaintenance":5996,"umpt":5997,"Ġunimp":5998,"Ġmoder":5999,"Ġtechnic":6000,"Ġflying":6001,"Ġqueso":6002,"Ġanimals":6003,"Ġessentially":6004,"Ġcarrots":6005,"organized":6006,"Ġstadium":6007,"22":6008,"bi":6009,"xious":6010,"Ġtack":6011,"heless":6012,"Ġling":6013,"Ġleng":6014,"Ġeur":6015,"ales":6016,"etheless":6017,"idence":6018,"mex":6019,"ecc":6020,"Ġrules":6021,"Ġfranc":6022,"aky":6023,"Ġordinary":6024,"Ġdisaster":6025,"Ġlean":6026,"Ġoffic":6027,"uming":6028,"Ġtwenty":6029,"comed":6030,"Ġbarist":6031,"Ġslam":6032,"Ġphones":6033,"nsince":6034,"Ġshady":6035,"new":6036,"Ġrequests":6037,"iments":6038,"Ġsupposedly":6039,"nonce":6040,"Ġidi":6041,"Ġdesigned":6042,"Ġperformance":6043,"Ġxs":6044,"Ġdentist":6045,"Ġcosmopolitan":6046,"Ġassuming":6047,"Ġpecan":6048,"Ġfeta":6049,"Ġchurch":6050,"Ġrefriger":6051,"Ġvillage":6052,"-$":6053,"did":6054,"la":6055,"Ġtout":6056,"Ġsne":6057,"incl":6058,"Ġlic":6059,"Ġheav":6060,"meh":6061,"eling":6062,"Ġrum":6063,"\\\".\\":6064,"Ġarc":6065,"Ġcamel":6066,"Ġbarg":6067,"Ġdiam":6068,"Ġdinners":6069,"ormous":6070,"Ġholy":6071,"Ġsets":6072,"ibility":6073,"Ġstopping":6074,"Ġappears":6075,"Ġsatisfy":6076,"Ġmasala":6077,"Ġcollect":6078,"Ġraised":6079,"from":6080,"Ġbiscuit":6081,"feteria":6082,"Ġsnob":6083,"Ġrepresent":6084,"Ġoutrage":6085,"Ġanticip":6086,"?).":6087,"nec":6088,"nvery":6089,"Ġfield":6090,"Ġpun":6091,"Ġpage":6092,"Ġdav":6093,"Ġlam":6094,"Ġlately":6095,"Ġloose":6096,"Ġhat":6097,"Ġthous":6098,"Ġresol":6099,"rob":6100,"terior":6101,"Ġvous":6102,"Ġcomments":6103,"Ġdrank":6104,"Ġgrown":6105,"Ġunable":6106,"Ġmakeup":6107,"Ġimpecc":6108,"nsecond":6109,"neven":6110,"Ġdealing":6111,"!!!!!!!!":6112,"check":6113,"Ġfaces":6114,"Ġsquash":6115,"Ġconveniently":6116,"Ġtransfer":6117,"Ġtowel":6118,"Ġmillion":6119,"Ġmacaroni":6120,"Ġdestination":6121,"Ġencountered":6122,"Ġfrustrating":6123,"Ġunbelievable":6124,"Ġprotein":6125,"Ġbalcony":6126,"Ġluggage":6127,")...":6128,"cu":6129,"eat":6130,"person":6131,"tail":6132,"vin":6133,"Ġcel":6134,"Ġcamer":6135,"Ġgig":6136,"Ġlin":6137,"itter":6138,"atisf":6139,"una":6140,"Ġcared":6141,"Ġlee":6142,"Ġquaint":6143,"aved":6144,"Ġentry":6145,"Ġpersonable":6146,"leasant":6147,"Ġrecog":6148,"Ġpassion":6149,"Ġceviche":6150,"Ġrequire":6151,"Ġyoga":6152,"Ġwraps":6153,"Ġadvertise":6154,"Ġcompetition":6155,"Ġoverwhelmed":6156,"Ġinvolved":6157,"Ġblocks":6158,"Ġquarter":6159,"Ġtequila":6160,"hor":6161,"lies":6162,"sha":6163,"Ġpuff":6164,"orary":6165,"itos":6166,"Ġugly":6167,"Ġrou":6168,"Ġripped":6169,"Ġbrows":6170,"ument":6171,"Ġunre":6172,"Ġunit":6173,"Ġstepped":6174,"Ġdesig":6175,"Ġdesper":6176,"Ġstarter":6177,"Ġsweetness":6178,"versity":6179,"Ġsetup":6180,"Ġpassing":6181,"Ġpromise":6182,"Ġpoison":6183,"Ġbuttery":6184,"Ġforgotten":6185,"Ġwaters":6186,"Ġfocus":6187,"Ġmcdonalds":6188,"Ġarrange":6189,"Ġjacuzz":6190,"Ġlaughed":6191,"Ġoun":6192,"era":6193,"Ġfather":6194,"eness":6195,"ony":6196,"Ġsaute":6197,"Ġcafeteria":6198,"aper":6199,"Ġpretentious":6200,"Ġador":6201,"Ġincident":6202,"Ġmarked":6203,"Ġbreaded":6204,"Ġremote":6205,"Ġexcess":6206,"Ġsmoky":6207,"Ġgeneric":6208,"Ġbachel":6209,"afel":6210,"Ġpopped":6211,"Ġlegit":6212,"Ġtourists":6213,"Ġsouthwest":6214,"Ġoyster":6215,"Ġoccasionally":6216,"Ġbattery":6217,"because":6218,"Ġresponded":6219,"Ġcoworkers":6220,"Ġsexy":6221,"Ġexhibit":6222,"Ġcousin":6223,"Ġartichoke":6224,"Ġpocket":6225,"Ġconstruction":6226,"Ġpremium":6227,"'\\":6228,"aid":6229,"biz":6230,"din":6231,"ella":6232,"nse":6233,"somet":6234,"vi":6235,"yon":6236,"Ġaioli":6237,"Ġborder":6238,"Ġnav":6239,"Ġincom":6240,"Ġrehe":6241,"Ġhits":6242,"Ġseven":6243,"Ġtruth":6244,"gery":6245,"Ġbreads":6246,"ierge":6247,"Ġsundays":6248,"Ġconcern":6249,"rette":6250,"Ġtransport":6251,"Ġbalanced":6252,"Ġsuspect":6253,"Ġtelevis":6254,"Ġkaraoke":6255,"150":6256,"bag":6257,"ele":6258,"luster":6259,"ping":6260,"ris":6261,"wow":6262,"Ġtree":6263,"Ġsilly":6264,"Ġbtw":6265,"Ġtong":6266,"Ġdates":6267,"Ġwasabi":6268,"acle":6269,"irty":6270,"Ġrates":6271,"Ġchim":6272,"Ġgrew":6273,"opus":6274,"Ġexpert":6275,"apoint":6276,"ummy":6277,"Ġgrace":6278,"Ġunfortun":6279,"Ġsteal":6280,"Ġreviewer":6281,"Ġcarnit":6282,"Ġstrike":6283,"ngo":6284,"Ġrecipe":6285,"Ġinfl":6286,"ology":6287,"Ġconcl":6288,"Ġconcierge":6289,"Ġnonetheless":6290,"Ġfacilities":6291,"Ġdistract":6292,"Ġblueberry":6293,"Ġsampled":6294,"atsu":6295,"nlast":6296,"Ġident":6297,"Ġencore":6298,"Ġluxor":6299,"ottom":6300,"Ġcampus":6301,"Ġwhiskey":6302,"ndefinitely":6303,"Ġacknowledged":6304,"Ġscrambled":6305,"Ġdiamond":6306,"Ġfif":6307,"Ġmaster":6308,"Ġpers":6309,"Ġpunch":6310,"Ġtoes":6311,"Ġdut":6312,"org":6313,"Ġlous":6314,"Ġhitting":6315,"Ġkab":6316,"Ġuptown":6317,"esteak":6318,"amame":6319,"Ġpee":6320,"Ġgrub":6321,"Ġtrail":6322,"Ġscam":6323,"Ġbitch":6324,"rah":6325,"Ġcharming":6326,"Ġbreading":6327,"Ġrecall":6328,"Ġrudely":6329,"Ġbeauty":6330,"Ġapologetic":6331,"Ġdistrict":6332,"Ġthanksgiving":6333,"Ġlayer":6334,"Ġjeans":6335,"Ġcombined":6336,"Ġkiller":6337,"Ġfrustrated":6338,"Ġjerk":6339,"----------------":6340,"Ġelectron":6341,"Ġfreezer":6342,"Ġassortment":6343,"Ġimpeccable":6344,"best":6345,"ipp":6346,"nca":6347,"Ġbc":6348,"Ġpier":6349,"esy":6350,"vey":6351,"Ġeager":6352,"Ġbeats":6353,"entiful":6354,"Ġtherefore":6355,"Ġwander":6356,"Ġfeature":6357,"Ġproject":6358,"Ġarch":6359,"owns":6360,"Ġbrow":6361,"Ġsteam":6362,"Ġacts":6363,"Ġcharm":6364,"Ġworthy":6365,"Ġpathetic":6366,"ifully":6367,"Ġappetizing":6368,"Ġlackluster":6369,"Ġcalm":6370,"Ġwallet":6371,"***":6372,"Ġsinging":6373,"Ġwelcomed":6374,"phot":6375,"Ġdrunken":6376,"Ġcommunication":6377,"Ġmirage":6378,"Ġfountains":6379,"Ġfeatured":6380,"Ġfrankly":6381,"Ġoctopus":6382,"Ġunpleasant":6383,"Ġpillows":6384,"Ġfirm":6385,"29":6386,"host":6387,"lass":6388,"sl":6389,"under":6390,"Ġ~":6391,"Ġtucked":6392,"Ġmaple":6393,"ashed":6394,"Ġpushed":6395,"onest":6396,"Ġweb":6397,"Ġthumbs":6398,"Ġsoaked":6399,"Ġjan":6400,"Ġfranch":6401,"Ġwheel":6402,"Ġvina":6403,"Ġcaused":6404,"Ġprop":6405,"Ġeater":6406,"Ġlocally":6407,"Ġscan":6408,"Ġreput":6409,"Ġrunny":6410,"Ġgarn":6411,"plus":6412,"Ġobno":6413,"box":6414,"Ġprovides":6415,"Ġcheesesteak":6416,"Ġviol":6417,"Ġmiser":6418,"Ġflights":6419,"smo":6420,"Ġruin":6421,"Ġcancelled":6422,"staffed":6423,"Ġconfirmed":6424,"Ġcosmo":6425,"Ġ:-)":6426,"nprice":6427,"Ġbummer":6428,"Ġfreakin":6429,"Ġculture":6430,"Ġcigarette":6431,"Ġbenefit":6432,"Ġample":6433,"Ġsloppy":6434,"Ġgordon":6435,"Ġstretch":6436,"Ġgilbert":6437,"Ġjacuzzi":6438,"Ġnavig":6439,"dog":6440,"gie":6441,"kers":6442,"lor":6443,"lers":6444,"mall":6445,"water":6446,"yo":6447,"Ġwicked":6448,"Ġdans":6449,"icious":6450,"Ġeight":6451,"lend":6452,"Ġyay":6453,"aled":6454,"alib":6455,"rie":6456,"Ġplentiful":6457,"Ġjunk":6458,"Ġexterior":6459,"Ġrule":6460,"Ġspark":6461,"Ġshout":6462,"aine":6463,"Ġroyal":6464,"Ġworn":6465,"Ġbackground":6466,"Ġshel":6467,"Ġpregn":6468,"Ġproced":6469,"Ġpeace":6470,"umes":6471,"Ġcleared":6472,"Ġamazingly":6473,"Ġshakes":6474,"Ġaddic":6475,"Ġjoin":6476,"Ġterr":6477,"nbread":6478,"Ġbills":6479,"Ġdropping":6480,"Ġscreens":6481,"Ġtorn":6482,"Ġneighbors":6483,"Ġtraveling":6484,"Ġnicest":6485,"Ġphotograp":6486,"Ġunderwhelming":6487,"Ġjewel":6488,"Ġexplanation":6489,"interest":6490,"Ġunfortunate":6491,"Ġcarnitas":6492,"fect":6493,"field":6494,"ires":6495,"mine":6496,"ube":6497,"Ġbout":6498,"Ġfired":6499,"Ġmous":6500,"enos":6501,"Ġrell":6502,"Ġreach":6503,"Ġstains":6504,"rid":6505,"Ġnoted":6506,"adise":6507,"Ġjoy":6508,"Ġexit":6509,"Ġalf":6510,"Ġalley":6511,"ilton":6512,"Ġdear":6513,"Ġmoon":6514,"Ġclerk":6515,"Ġunhe":6516,"teen":6517,"Ġscar":6518,"Ġnewer":6519,"Ġshoulder":6520,"Ġstaring":6521,"Ġcouples":6522,"Ġreflect":6523,"Ġindul":6524,"uction":6525,"tait":6526,"Ġmessy":6527,"Ġearned":6528,"cheese":6529,"Ġedamame":6530,"Ġdamage":6531,"Ġhipster":6532,"Ġdanger":6533,"Ġimprovement":6534,"Ġlaughing":6535,"Ġcoworker":6536,"Ġlukewarm":6537,"Ġswimming":6538,"Ġdeclined":6539,"Ġtossed":6540,"Ġsupervisor":6541,"Ġrecogni":6542,"Ġvinaig":6543,",,":6544,"cream":6545,"ju":6546,"wal":6547,"hew":6548,"Ġsont":6549,"onz":6550,"Ġnar":6551,"Ġnerv":6552,"Ġstir":6553,"Ġheated":6554,"sticks":6555,"nthanks":6556,"asted":6557,"select":6558,"Ġspic":6559,"Ġspare":6560,"Ġcomedy":6561,"Ġgrade":6562,"azing":6563,"Ġstays":6564,"utella":6565,"load":6566,"Ġadvised":6567,"ugula":6568,"Ġhearty":6569,"Ġflatbread":6570,"Ġvacu":6571,"front":6572,"Ġlistening":6573,"Ġcracked":6574,"Ġluxury":6575,"Ġcarrot":6576,"Ġunderstood":6577,"Ġexchange":6578,"Ġlousy":6579,"23":6580,"away":6581,"dough":6582,"fall":6583,"nlike":6584,"service":6585,"Ġsor":6586,"reg":6587,"Ġbian":6588,"Ġple":6589,"rig":6590,"irl":6591,"ustom":6592,"Ġkale":6593,"Ġallows":6594,"Ġcanyon":6595,"Ġsheets":6596,"Ġsals":6597,"Ġclam":6598,"Ġtrade":6599,"Ġpizzeria":6600,"Ġdrizz":6601,"Ġ2014":6602,"Ġguessing":6603,"Ġprix":6604,"Ġpics":6605,"Ġbeautifully":6606,"Ġplane":6607,"Ġjuly":6608,"Ġbikes":6609,"Ġfilip":6610,"Ġapproach":6611,"Ġscallop":6612,"workers":6613,"Ġcontacted":6614,"Ġclaimed":6615,"Ġmercha":6616,"nhad":6617,"Ġutens":6618,"Ġcompanies":6619,"====":6620,"Ġskew":6621,"Ġpreparation":6622,"Ġcroissant":6623,"Ġguarantee":6624,"Ġoccupied":6625,"Ġdavid":6626,"Ġsauteed":6627,"date":6628,"uage":6629,"yi":6630,"Ġihop":6631,"Ġmur":6632,"Ġmap":6633,"Ġpace":6634,"Ġtodd":6635,"Ġeth":6636,"...\\\"":6637,"Ġnotes":6638,"Ġjar":6639,"Ġseed":6640,"ending":6641,"Ġsomebody":6642,"ateg":6643,"iece":6644,"osa":6645,"Ġpeach":6646,"Ġgrac":6647,"Ġgrowing":6648,"Ġdinning":6649,"beat":6650,"appet":6651,"Ġtrio":6652,"Ġmeatlo":6653,"Ġboot":6654,"Ġcontr":6655,"Ġmonte":6656,"liable":6657,"Ġpickle":6658,"Ġplayer":6659,"Ġhoot":6660,"Ġbottled":6661,"Ġmexico":6662,"Ġcali":6663,"Ġpolice":6664,"Ġinsult":6665,"Ġmassages":6666,"Ġadvise":6667,"Ġsymp":6668,"Ġscott":6669,"Ġapprox":6670,"Ġwinner":6671,"Ġignore":6672,"Ġadvertising":6673,"Ġmike":6674,"Ġbucket":6675,"Ġattractive":6676,"Ġconcerns":6677,"nunfortunately":6678,"Ġeyebrows":6679,"Ġunusual":6680,"including":6681,"Ġcamelback":6682,"Ġtongue":6683,"Ġobnoxious":6684,"Ġvinaigrette":6685,"):":6686,"cy":6687,"fty":6688,"wait":6689,"Ġsen":6690,"inct":6691,"Ġbare":6692,"oria":6693,"ishes":6694,"Ġine":6695,"Ġstaple":6696,"Ġjul":6697,"Ġraving":6698,"redo":6699,"ami":6700,"Ġdeath":6701,"Ġleather":6702,"cape":6703,"Ġmob":6704,"Ġblind":6705,"Ġbadly":6706,"Ġfreshness":6707,"Ġattack":6708,"Ġsurgery":6709,"Ġavo":6710,"Ġ2011":6711,"Ġturning":6712,"Ġdresses":6713,"Ġaccurate":6714,"insp":6715,"Ġjuices":6716,"Ġnumbers":6717,"Ġpanini":6718,"Ġadmitted":6719,"Ġscrap":6720,"Ġpressed":6721,"Ġsleeping":6722,"Ġscrewed":6723,"Ġreplacement":6724,"Ġinconvenience":6725,"Ġbrazilian":6726,"Ġcertific":6727,"nfinally":6728,"Ġbargain":6729,"Ġoutrageous":6730,"Ġnervous":6731,"++":6732,"65":6733,"houses":6734,"nr":6735,"pot":6736,"too":6737,"vy":6738,"erve":6739,"Ġgut":6740,"Ġec":6741,"vern":6742,"Ġstumbled":6743,"Ġplant":6744,"Ġlil":6745,"Ġseve":6746,"Ġchowder":6747,"Ġpreference":6748,"Ġflash":6749,"Ġarugula":6750,"Ġ22":6751,"Ġteac":6752,"Ġapples":6753,"Ġunhappy":6754,"Ġchai":6755,"Ġthinks":6756,"xture":6757,"Ġhappily":6758,"Ġworker":6759,"nwent":6760,"Ġtreasure":6761,"Ġcooler":6762,"Ġlightly":6763,"nbottom":6764,"Ġshoe":6765,"Ġlistened":6766,"pecial":6767,"why":6768,"Ġpasses":6769,"!!!!!!":6770,"velop":6771,"Ġvalid":6772,"Ġmodel":6773,"Ġtechn":6774,"Ġgirlfriends":6775,"Ġholes":6776,"Ġconvin":6777,"Ġliquid":6778,"Ġprinted":6779,"Ġfavour":6780,"Ġavec":6781,"Ġtouched":6782,"Ġfestival":6783,"Ġcreep":6784,"Ġepic":6785,"Ġcarpets":6786,"Ġfalafel":6787,"Ġscared":6788,"Ġwitness":6789,"Ġterminal":6790,"Ġpoisoning":6791,"photos":6792,"Ġmeatloaf":6793,"da":6794,"tered":6795,"Ġtank":6796,"Ġicing":6797,"inated":6798,"inations":6799,"Ġbored":6800,"Ġcy":6801,"itation":6802,"vegas":6803,"Ġhooked":6804,"Ġstun":6805,"stick":6806,"Ġupper":6807,"Ġjour":6808,"Ġrust":6809,"sell":6810,"Ġchoo":6811,"Ġfear":6812,"intage":6813,"owned":6814,"Ġclin":6815,"Ġaged":6816,"Ġappt":6817,"comes":6818,"Ġtries":6819,"Ġsteps":6820,"Ġparadise":6821,"Ġunderstaffed":6822,"Ġadds":6823,"Ġdriven":6824,"Ġlesson":6825,"Ġbelong":6826,"Ġzu":6827,"Ġtriple":6828,"Ġinterrupt":6829,"Ġ99":6830,"Ġdouche":6831,"Ġeduc":6832,"Ġsodas":6833,"Ġsending":6834,"Ġhike":6835,"Ġmotel":6836,"Ġfeedback":6837,"Ġfucking":6838,"Ġsirloin":6839,"Ġdisappeared":6840,"Ġincorrect":6841,"alibur":6842,"Ġalfredo":6843,"Ġsalsas":6844,"90":6845,"loc":6846,"nps":6847,"will":6848,"Ġtat":6849,"Ġain":6850,"Ġaqu":6851,"Ġaug":6852,"Ġsession":6853,"Ġmong":6854,"Ġpist":6855,"itions":6856,"othered":6857,"Ġecon":6858,"Ġhrs":6859,"Ġsamm":6860,"Ġka":6861,"Ġspar":6862,"Ġchops":6863,"Ġlovers":6864,"Ġgrey":6865,"Ġuses":6866,"Ġvintage":6867,"mpoo":6868,"venue":6869,"Ġprot":6870,"Ġflies":6871,"Ġcouldnt":6872,"Ġbrick":6873,"olian":6874,"Ġtrap":6875,"Ġscary":6876,"Ġdrivers":6877,"restaurant":6878,"Ġchinat":6879,"Ġblackjack":6880,"Ġpainful":6881,"Ġcloset":6882,"Ġmetro":6883,"Ġgladly":6884,"Ġlimit":6885,"Ġengine":6886,"okay":6887,"Ġalcoholic":6888,"Ġmemories":6889,"Ġventure":6890,"Ġrestrooms":6891,"Ġsurrounding":6892,"Ġcranberry":6893,"Ġlanguage":6894,"300":6895,"mail":6896,"Ġ[":6897,"Ġtenders":6898,"Ġbour":6899,"Ġfund":6900,"atically":6901,"ali":6902,"Ġhilar":6903,"Ġjet":6904,"Ġwake":6905,"Ġcapt":6906,"Ġdrain":6907,"Ġveal":6908,"ianc":6909,"Ġsometime":6910,"Ġreviewed":6911,".......":6912,"Ġamazed":6913,"Ġmarquee":6914,"Ġjoined":6915,"Ġinstantly":6916,"Ġexcalibur":6917,"Ġreceiving":6918,"Ġhangover":6919,"Ġingredient":6920,"Ġelegant":6921,"Ġsunset":6922,"Ġattempted":6923,"Ġregarding":6924,"Ġhallway":6925,"Ġwonton":6926,"Ġjalape":6927,"Ġdegree":6928,"Ġargue":6929,"Ġlaptop":6930,"Ġcouches":6931,"Ġfrancisco":6932,"Ġheavily":6933,"Ġutensils":6934,"Ġeconom":6935,")!":6936,"chat":6937,"cise":6938,"eye":6939,"oons":6940,"pre":6941,"uu":6942,"wo":6943,"Ġwil":6944,"Ġpushing":6945,"Ġdumb":6946,"Ġnutella":6947,"Ġhated":6948,"Ġeve":6949,"acha":6950,"Ġstink":6951,"ribut":6952,"meal":6953,"adish":6954,"Ġash":6955,"Ġoutf":6956,"Ġranc":6957,"Ġvast":6958,"Ġcave":6959,"Ġleaf":6960,"Ġarom":6961,"Ġclim":6962,"Ġbugs":6963,"Ġbreeze":6964,"Ġlocked":6965,"Ġherb":6966,"Ġburn":6967,"apping":6968,"Ġactiv":6969,"Ġhoped":6970,"Ġfold":6971,"Ġpolitely":6972,"aux":6973,"Ġseasonal":6974,"attentive":6975,"Ġfacing":6976,"Ġpalate":6977,"Ġcommer":6978,"Ġsourdough":6979,"nonly":6980,"Ġbrownie":6981,"Ġcollection":6982,"nhttp":6983,"Ġutter":6984,"Ġsurrounded":6985,"Ġhospit":6986,"Ġunderwhelmed":6987,"Ġdivine":6988,"Ġmilkshake":6989,"Ġinconsistent":6990,"seasoned":6991,"Ġincompet":6992,"Ġmerchand":6993,"Ġchinatown":6994,"ben":6995,"gable":6996,"ipping":6997,"jo":6998,"kn":6999,"nlet":7000,"uf":7001,"oul":7002,"Ġdunk":7003,"Ġlump":7004,"Ġlanes":7005,"Ġhh":7006,"Ġhue":7007,"Ġhilton":7008,"ril":7009,"cend":7010,"nthank":7011,"Ġjames":7012,"anta":7013,"chini":7014,"Ġgoodies":7015,"Ġrud":7016,"ulting":7017,"Ġnose":7018,"osh":7019,"Ġoverhe":7020,"Ġoverchar":7021,"Ġpeas":7022,"Ġsmothered":7023,"Ġgrad":7024,"Ġblt":7025,"Ġdime":7026,"azed":7027,"Ġyell":7028,"Ġdefinately":7029,"Ġdesire":7030,"Ġopens":7031,"Ġmarri":7032,"Ġshampoo":7033,"Ġpatties":7034,"Ġterm":7035,"Ġcheapest":7036,"Ġhorser":7037,"Ġ2012":7038,"ucchini":7039,"Ġlighter":7040,"Ġsketch":7041,"Ġstops":7042,"Ġlively":7043,"lock":7044,"Ġfacebook":7045,"Ġdiego":7046,"Ġhumor":7047,"Ġoutdated":7048,"Ġscratch":7049,"Ġmedic":7050,"Ġbrie":7051,"Ġsmoothies":7052,"Ġattendant":7053,"Ġdoctors":7054,"Ġcourtesy":7055,"Ġpretzels":7056,"Ġvolume":7057,"Ġclientele":7058,"Ġmojito":7059,"Ġbianco":7060,"Ġfilipino":7061,"Ġhorseradish":7062,"!?":7063,"26":7064,"28":7065,"every":7066,"lig":7067,"since":7068,"Ġwol":7069,"Ġsans":7070,"Ġfianc":7071,"hara":7072,"Ġgee":7073,"Ġlent":7074,"itty":7075,"Ġwasting":7076,"arm":7077,"Ġbear":7078,"aya":7079,"stal":7080,"meat":7081,"Ġlift":7082,"Ġdoc":7083,"Ġjustify":7084,"Ġwave":7085,"Ġcans":7086,"Ġcod":7087,"Ġshelf":7088,"ptions":7089,"Ġtepp":7090,"Ġknowled":7091,"Ġsmash":7092,"Ġunex":7093,"Ġtrick":7094,"comp":7095,"Ġchal":7096,"Ġblank":7097,"Ġdiagn":7098,"Ġcarni":7099,"epend":7100,"Ġboiled":7101,"Ġcontent":7102,"Ġsits":7103,"Ġwoke":7104,"Ġfishy":7105,"Ġstrugg":7106,"Ġpico":7107,"Ġspray":7108,"Ġaccomp":7109,"Ġsolution":7110,"Ġauch":7111,"Ġopposed":7112,"Ġsafeway":7113,"Ġnapkin":7114,"Ġgeorge":7115,"Ġgoogle":7116,"Ġmuffins":7117,"Ġratio":7118,"Ġappearance":7119,"Ġsuperior":7120,"Ġoverpowering":7121,"Ġlicense":7122,"Ġmiserable":7123,"Ġrelleno":7124,"Ġaugust":7125,"Ġmongolian":7126,"fresh":7127,"nuts":7128,"part":7129,"vada":7130,"zo":7131,"zel":7132,"Ġ!!!":7133,"reak":7134,"Ġoak":7135,"Ġcam":7136,"Ġms":7137,"Ġmast":7138,"Ġmash":7139,"ask":7140,"Ġtone":7141,"Ġtoler":7142,"orail":7143,"Ġnature":7144,"Ġhut":7145,"Ġplat":7146,"Ġuh":7147,"Ġsoak":7148,"Ġlied":7149,"Ġoutlet":7150,"Ġken":7151,"Ġtheirs":7152,"ization":7153,"Ġdevelop":7154,"Ġknocked":7155,"Ġages":7156,"Ġeatery":7157,"udge":7158,"Ġbarbec":7159,"oston":7160,"Ġsurely":7161,"Ġlaund":7162,"Ġcompleted":7163,"ahi":7164,"itched":7165,"Ġbagu":7166,"Ġzucchini":7167,"Ġsooner":7168,"Ġtenderloin":7169,"nalthough":7170,"Ġperformers":7171,"Ġdiscover":7172,"Ġassistant":7173,"********":7174,"Ġdealership":7175,"Ġmimosas":7176,"Ġcitrus":7177,"Ġirritated":7178,"Ġensure":7179,"Ġchallenge":7180,"Ġblonde":7181,"Ġtechnician":7182,"Ġrefrigerator":7183,"21":7184,":)":7185,"cook":7186,"cious":7187,"lines":7188,"mate":7189,"ville":7190,"wa":7191,"Ġiphone":7192,"icures":7193,"Ġitaly":7194,"acity":7195,"Ġhouses":7196,"rip":7197,"Ġbutton":7198,"adent":7199,"roit":7200,"Ġasse":7201,"chicken":7202,"Ġrace":7203,"Ġkicked":7204,"Ġfrites":7205,"Ġlosing":7206,"quet":7207,"Ġvib":7208,"Ġcapp":7209,"Ġcoat":7210,"ours":7211,"Ġ17":7212,"Ġcru":7213,"Ġbubb":7214,"istic":7215,"Ġcompens":7216,"Ġhappier":7217,"Ġvisitors":7218,"Ġglo":7219,"Ġletter":7220,"Ġaddict":7221,"Ġjobs":7222,"Ġtalented":7223,"Ġreply":7224,"Ġplays":7225,"Ġfox":7226,"nby":7227,"Ġsmokey":7228,"Ġcalz":7229,"Ġsubpar":7230,"Ġswiss":7231,"Ġideal":7232,"?!?":7233,"Ġcurious":7234,"Ġblew":7235,"Ġbrief":7236,"Ġbands":7237,"Ġmartinis":7238,"Ġcarte":7239,"Ġexplore":7240,"Ġreserve":7241,"Ġshipping":7242,"Ġvendors":7243,"nupon":7244,"Ġembarrassed":7245,"Ġcontemporary":7246,"ndrinks":7247,"Ġlength":7248,"something":7249,"Ġknowledgable":7250,".'":7251,"bble":7252,"hey":7253,"rel":7254,"Ġces":7255,"Ġmit":7256,"Ġpac":7257,"Ġpiano":7258,"Ġdun":7259,"Ġly":7260,"Ġluc":7261,"Ġnur":7262,"Ġinvent":7263,"Ġstall":7264,"urous":7265,"str":7266,"Ġjose":7267,"Ġtik":7268,"Ġray":7269,"Ġspit":7270,"Ġprem":7271,"Ġconco":7272,"Ġflor":7273,"agger":7274,"\\\"...":7275,"Ġcrave":7276,"Ġbranch":7277,"Ġgrits":7278,"Ġguide":7279,"Ġguard":7280,"Ġphx":7281,"Ġmarg":7282,"Ġharrah":7283,"Ġsupermarket":7284,"Ġsurv":7285,"enced":7286,"Ġposition":7287,"Ġuniversity":7288,"Ġemerg":7289,"Ġbones":7290,"Ġsummerlin":7291,"Ġcommunic":7292,"andaise":7293,"Ġgooey":7294,"Ġassociate":7295,"Ġgenuinely":7296,"Ġnetwork":7297,"Ġhundreds":7298,"Ġcuban":7299,"Ġjimmy":7300,"Ġfortunately":7301,"Ġhollandaise":7302,"Ġmousse":7303,"del":7304,"gen":7305,"hole":7306,"nen":7307,"nab":7308,"nordered":7309,"pret":7310,"say":7311,"Ġwond":7312,"Ġwire":7313,"Ġwished":7314,"Ġwestern":7315,"ndes":7316,"around":7317,"Ġreub":7318,"Ġyel":7319,"Ġhide":7320,"Ġhib":7321,"Ġstare":7322,"Ġmyster":7323,"Ġlip":7324,"Ġrail":7325,"Ġdos":7326,"Ġloaf":7327,"Ġsunda":7328,"Ġcheer":7329,"Ġpricy":7330,"Ġflan":7331,"Ġmocha":7332,"Ġenormous":7333,"Ġcram":7334,"Ġsalons":7335,"irsty":7336,"udos":7337,"Ġstaffed":7338,"Ġcarol":7339,"Ġmeaty":7340,"Ġkindly":7341,"Ġmarks":7342,"Ġchannel":7343,"Ġpath":7344,"Ġmonorail":7345,"Ġpickup":7346,"Ġbelt":7347,"Ġstrict":7348,"Ġslowly":7349,"Ġcurds":7350,"Ġunderstanding":7351,"Ġpurchasing":7352,"Ġoccur":7353,"Ġdistur":7354,"class":7355,"Ġinvited":7356,"Ġ=)":7357,"Ġscrub":7358,"Ġdiscounts":7359,"Ġconversations":7360,"Ġimportantly":7361,"Ġcommented":7362,"Ġraved":7363,"Ġcarts":7364,"Ġcatfish":7365,"Ġheavenly":7366,"Ġhighlights":7367,"Ġjumped":7368,"Ġmicrowaved":7369,"Ġsoleil":7370,"Ġbummed":7371,"Ġcritic":7372,"Ġreferred":7373,"Ġcrawfish":7374,"Ġrosemary":7375,"Ġpiping":7376,"Ġricotta":7377,"Ġounce":7378,"Ġfranchise":7379,"Ġreputation":7380,"Ġvacuum":7381,"Ġskewers":7382,"Ġmerchandise":7383,"bad":7384,"big":7385,"ike":7386,"vior":7387,"Ġwipe":7388,"Ġboston":7389,"Ġdare":7390,"Ġdense":7391,"Ġgin":7392,"itect":7393,"Ġrewards":7394,"Ġhun":7395,"Ġarena":7396,"Ġlimp":7397,"Ġoutlets":7398,"Ġservings":7399,"Ġvirt":7400,"Ġarro":7401,"Ġbrit":7402,"umble":7403,"Ġdeck":7404,"Ġsmiling":7405,"beit":7406,"Ġreviewing":7407,"raft":7408,"Ġresched":7409,"Ġpastor":7410,"Ġjoking":7411,"Ġselected":7412,"lessly":7413,"ode":7414,"Ġpaired":7415,"Ġexcl":7416,"Ġlacks":7417,"Ġvaried":7418,"nched":7419,"Ġpurse":7420,"Ġpresence":7421,"nnever":7422,"Ġbroad":7423,"Ġcontinues":7424,"Ġdistinct":7425,"Ġsplur":7426,"Ġcondiments":7427,"Ġdiscounted":7428,"Ġanswering":7429,"Ġmixture":7430,"guing":7431,"Ġpeanuts":7432,"Ġpounds":7433,"Ġinsanely":7434,"melon":7435,"Ġadventurous":7436,"Ġcandle":7437,"necess":7438,"Ġhilarious":7439,"27":7440,"hu":7441,"nmost":7442,"rors":7443,"via":7444,"Ġsf":7445,"Ġsip":7446,"had":7447,"Ġphar":7448,"Ġdang":7449,"Ġgay":7450,"Ġgather":7451,"Ġnugg":7452,"Ġey":7453,"Ġreality":7454,"Ġreliable":7455,"Ġstool":7456,"Ġstories":7457,"owed":7458,"Ġexha":7459,"Ġrye":7460,"Ġship":7461,"aka":7462,"Ġcoin":7463,"Ġdebit":7464,"Ġflaw":7465,"Ġbrain":7466,"Ġsmith":7467,"Ġgrain":7468,"Ġyelled":7469,"Ġcases":7470,"Ġbobby":7471,"Ġtrees":7472,"Ġrelie":7473,"gano":7474,"Ġcashiers":7475,"Ġearl":7476,"Ġedges":7477,"Ġsausages":7478,"Ġsquid":7479,"hetto":7480,"Ġstrongly":7481,"Ġfalls":7482,"Ġbrands":7483,"Ġjalapenos":7484,"clean":7485,"Ġnecessarily":7486,"Ġfett":7487,"Ġratings":7488,"Ġberry":7489,"Ġadventure":7490,"Ġdissapoint":7491,"Ġbehavior":7492,"Ġroute":7493,"Ġtacky":7494,"smoking":7495,"Ġcertificate":7496,"eer":7497,"Ġsar":7498,"rese":7499,"Ġod":7500,"ndessert":7501,"Ġcateg":7502,"hard":7503,"Ġpets":7504,"eded":7505,"Ġdill":7506,"oops":7507,"Ġbutcher":7508,"Ġsocks":7509,"Ġsear":7510,"Ġsept":7511,"ores":7512,"thru":7513,"Ġcoffe":7514,"weed":7515,"ptical":7516,"Ġwhoever":7517,"Ġunc":7518,"Ġunnecess":7519,"Ġburning":7520,"Ġblvd":7521,"Ġsteve":7522,"Ġcharred":7523,"Ġdoesnt":7524,"Ġchances":7525,"airy":7526,"Ġaccomod":7527,"Ġpapa":7528,"Ġsells":7529,"Ġmichel":7530,"Ġownership":7531,"Ġtrader":7532,"Ġerror":7533,"Ġlatest":7534,"Ġuneven":7535,"Ġyellowtail":7536,"Ġfeatures":7537,"Ġexecution":7538,"Ġcompanion":7539,"Ġtamale":7540,"Ġescort":7541,"Ġrenovated":7542,"Ġredeeming":7543,"nseriously":7544,"Ġarchitect":7545,"Ġterrace":7546,"Ġnarrow":7547,"Ġconvinced":7548,"chata":7549,"Ġwolf":7550,"Ġaccompany":7551,"Ġbarbecue":7552,"Ġpharm":7553,"Ġexhaust":7554,"lb":7555,"mosphere":7556,"pa":7557,"pack":7558,"ront":7559,"Ġbent":7560,"Ġment":7561,"Ġmort":7562,"Ġpom":7563,"Ġpup":7564,"Ġpowder":7565,"Ġlane":7566,"Ġhabit":7567,"also":7568,"Ġstro":7569,"kee":7570,"Ġliver":7571,"ante":7572,"illing":7573,"Ġalert":7574,"Ġkr":7575,"Ġkudos":7576,"Ġshown":7577,"Ġcovers":7578,"Ġdeb":7579,"Ġthemed":7580,"Ġslim":7581,"izza":7582,"ockey":7583,"berg":7584,"nsh":7585,"Ġshall":7586,"Ġshaved":7587,"rooms":7588,"Ġwatermelon":7589,"Ġhalfway":7590,"nfrom":7591,"Ġrepairs":7592,"Ġpride":7593,"Ġpackages":7594,"Ġmeth":7595,"Ġhostesses":7596,"Ġforgettable":7597,"Ġmistakes":7598,"Ġjelly":7599,"Ġcombinations":7600,"Ġbleu":7601,"Ġmagaz":7602,"Ġgroceries":7603,"Ġcowboy":7604,"nanyways":7605,"Ġsooooo":7606,"Ġanswers":7607,"Ġdemand":7608,"Ġconditioning":7609,"Ġbouncers":7610,"Ġprescription":7611,"Ġremaining":7612,"Ġtangy":7613,"Ġeurope":7614,"Ġnavigate":7615,"Ġpregnant":7616,"Ġfavourite":7617,"Ġdunkin":7618,"hi":7619,"mother":7620,"xim":7621,"your":7622,"Ġcri":7623,"haha":7624,"Ġdudes":7625,"orter":7626,"Ġlun":7627,"oty":7628,"Ġew":7629,"Ġeine":7630,"Ġbecoming":7631,"Ġhr":7632,"Ġlibr":7633,"orette":7634,"Ġtiming":7635,"Ġrab":7636,"Ġware":7637,"Ġmoves":7638,"Ġpeu":7639,"Ġclock":7640,"Ġriv":7641,"Ġhers":7642,"Ġneeding":7643,"berto":7644,"Ġending":7645,"Ġimperial":7646,"Ġboat":7647,"Ġshade":7648,"Ġsteakhouses":7649,"then":7650,"Ġcornbread":7651,"Ġconsum":7652,"Ġhorchata":7653,"Ġhusbands":7654,"Ġinfused":7655,"park":7656,"manager":7657,"Ġbien":7658,"Ġscramble":7659,"Ġtends":7660,"Ġpenne":7661,"Ġjacket":7662,"Ġgrounds":7663,"Ġdrenched":7664,"nneed":7665,"fety":7666,"Ġcaramelized":7667,"Ġultimately":7668,"Ġamongst":7669,"Ġresemb":7670,"Ġtamales":7671,"Ġoregano":7672,"Ġhesitant":7673,"Ġremodeled":7674,"Ġcopy":7675,"Ġ$$$":7676,"Ġcurtains":7677,"Ġpitcher":7678,"Ġbraised":7679,"Ġadorable":7680,"Ġunexpected":7681,"Ġemergency":7682,"Ġyelper":7683,"',":7684,"55":7685,"gage":7686,"mins":7687,"special":7688,"thank":7689,"vs":7690,"Ġbs":7691,"Ġbattered":7692,"Ġfave":7693,"Ġcable":7694,"Ġtoys":7695,"Ġdying":7696,"Ġgan":7697,"Ġgaming":7698,"itz":7699,"itor":7700,"Ġnational":7701,"icle":7702,"ati":7703,"urally":7704,"stars":7705,"Ġsober":7706,"Ġanti":7707,"Ġnevada":7708,"Ġsafety":7709,"Ġrushing":7710,"Ġaber":7711,"respect":7712,"Ġwagy":7713,"Ġnove":7714,"inda":7715,"Ġflaky":7716,"Ġagent":7717,"Ġdecadent":7718,"Ġhotdog":7719,"Ġdelayed":7720,"Ġyep":7721,"ublic":7722,"raw":7723,"Ġlasted":7724,"Ġextended":7725,"Ġendless":7726,"Ġglazed":7727,"Ġpastas":7728,"Ġdealt":7729,"Ġhorrend":7730,"Ġescape":7731,"nothing":7732,"Ġease":7733,"Ġmonthly":7734,"Ġpartying":7735,"Ġapril":7736,"Ġpoke":7737,"chee":7738,"shirt":7739,"Ġoccasional":7740,"aaaa":7741,"Ġcelebrity":7742,"Ġrobert":7743,"Ġcreek":7744,"Ġhorribly":7745,"Ġmaintained":7746,"Ġboutique":7747,"Ġcreepy":7748,"Ġsparse":7749,"Ġhibachi":7750,"ximity":7751,"Ġwagyu":7752,"een":7753,"ien":7754,"ration":7755,"Ġtint":7756,"Ġou":7757,"Ġcider":7758,"Ġmaker":7759,"Ġdingy":7760,"Ġghost":7761,"Ġghetto":7762,"ene":7763,"ann":7764,"usive":7765,"Ġthreat":7766,"Ġhills":7767,"Ġstroll":7768,"Ġorle":7769,"Ġkal":7770,"Ġspiced":7771,"Ġspilled":7772,"Ġlog":7773,"Ġvict":7774,"olen":7775,"Ġsmiles":7776,"Ġblanc":7777,"Ġdiff":7778,"Ġdipped":7779,"Ġdownright":7780,"Ġcarlo":7781,"Ġacrob":7782,"Ġretro":7783,"Ġharder":7784,"Ġrefuse":7785,"Ġdecently":7786,"Ġcreamed":7787,"Ġtrek":7788,"Ġhorse":7789,"Ġexcite":7790,"Ġextraord":7791,"Ġdryer":7792,"Ġsupplies":7793,"Ġstyles":7794,"ĠĠĠĠĠĠ":7795,"Ġmission":7796,"Ġceas":7797,"Ġamounts":7798,"Ġswing":7799,"Ġvarieties":7800,"Ġtorta":7801,"attle":7802,"Ġbuildings":7803,"nloc":7804,"Ġfilm":7805,"Ġpaperwork":7806,"Ġdirections":7807,"Ġmemory":7808,"Ġadditionally":7809,"Ġcapital":7810,"Ġattending":7811,"Ġpriority":7812,"Ġwooden":7813,"Ġinternational":7814,"Ġurg":7815,"fetime":7816,"Ġjohns":7817,"steak":7818,"Ġinstalled":7819,"Ġcrying":7820,"Ġbouncer":7821,"Ġconnected":7822,"Ġautomatically":7823,"ncheck":7824,"atisfied":7825,"Ġhooters":7826,"Ġclinic":7827,"Ġreuben":7828,"Ġhorrendous":7829,"hold":7830,"ji":7831,"nings":7832,"never":7833,"rum":7834,"sweet":7835,"thanks":7836,"Ġavenue":7837,"Ġsect":7838,"Ġbatch":7839,"Ġfart":7840,"ounc":7841,"Ġdur":7842,"ingo":7843,"Ġmellow":7844,"Ġsahara":7845,"Ġfoodie":7846,"Ġroutine":7847,"quis":7848,"Ġvom":7849,"nies":7850,"Ġlem":7851,"Ġproud":7852,"Ġflip":7853,"Ġarms":7854,"Ġbug":7855,"Ġwhose":7856,"Ġdiab":7857,"Ġperm":7858,"Ġinches":7859,"nwhy":7860,"life":7861,"Ġarrives":7862,"Ġpickled":7863,"Ġremark":7864,"Ġskipped":7865,"Ġindepend":7866,"Ġdecorations":7867,"Ġswitched":7868,"nnice":7869,"Ġearn":7870,"Ġpainted":7871,"Ġparticip":7872,"Ġemer":7873,"Ġsunny":7874,"umbers":7875,"Ġamericanized":7876,"Ġauf":7877,"?\\\"\\":7878,"arium":7879,"Ġprocessed":7880,"Ġgear":7881,"Ġmiracle":7882,"Ġdental":7883,"nprices":7884,"Ġfloating":7885,"Ġangeles":7886,"Ġintroduced":7887,"Ġaisle":7888,"Ġgranola":7889,"Ġgarnish":7890,"Ġdangerous":7891,"Ġmarriott":7892,"Ġsketchy":7893,"49":7894,"dec":7895,"face":7896,"iki":7897,"los":7898,"medi":7899,"nice":7900,"nlove":7901,"run":7902,"wr":7903,"Ġ?":7904,"Ġtai":7905,"Ġwound":7906,"inal":7907,"erved":7908,"Ġfuss":7909,"Ġcot":7910,"Ġpil":7911,"Ġtost":7912,"Ġinj":7913,"Ġinattentive":7914,"Ġforce":7915,"Ġhood":7916,"Ġhockey":7917,"store":7918,"stone":7919,"ads":7920,"Ġsoc":7921,"ntwo":7922,"Ġjung":7923,"Ġalbert":7924,"Ġkatsu":7925,"Ġframe":7926,"Ġchos":7927,"...)":7928,"Ġcanal":7929,"ourse":7930,"Ġdelect":7931,"Ġanybody":7932,"Ġprops":7933,"Ġproximity":7934,"Ġriding":7935,"arded":7936,"Ġgrind":7937,"ipast":7938,"Ġdiverse":7939,"Ġslide":7940,"Ġdefinite":7941,"Ġacting":7942,"Ġresist":7943,"Ġempan":7944,"people":7945,"igned":7946,"Ġrepublic":7947,"Ġpaella":7948,"Ġsettle":7949,"Ġfillet":7950,"Ġairline":7951,"Ġairlines":7952,"yeah":7953,"aunt":7954,"Ġloudly":7955,"Ġconfusion":7956,"anky":7957,"Ġpulling":7958,"Ġinformative":7959,"Ġsatisfaction":7960,"nlook":7961,"Ġaunt":7962,"Ġtradition":7963,"Ġcaprese":7964,"nnote":7965,"Ġhallways":7966,"Ġseaweed":7967,"Ġshells":7968,"Ġpupp":7969,"Ġexecuted":7970,"Ġsubstitute":7971,"Ġstatus":7972,"Ġsuddenly":7973,"Ġrepeatedly":7974,"Ġthousands":7975,"Ġoverheard":7976,"bud":7977,"ell":7978,"gary":7979,"miss":7980,"nqu":7981,"namb":7982,"tub":7983,"uv":7984,"uan":7985,"hens":7986,"Ġcities":7987,"Ġtoy":7988,"Ġdick":7989,"Ġlec":7990,"Ġlav":7991,"Ġlamp":7992,"ichan":7993,"lex":7994,"acing":7995,"rier":7996,"Ġjazz":7997,"Ġexer":7998,"Ġrag":7999,"Ġko":8000,"Ġability":8001,"ulf":8002,"Ġlease":8003,"Ġsheet":8004,"Ġ$.":8005,"Ġcrown":8006,"Ġcrumbs":8007,"imm":8008,"olis":8009,"Ġapply":8010,"assing":8011,"Ġnewly":8012,"Ġfinanc":8013,"Ġrecommending":8014,"Ġwatering":8015,"Ġregist":8016,"athon":8017,"Ġstruct":8018,"Ġsupply":8019,"Ġzoo":8020,"Ġpassen":8021,"Ġ75":8022,"Ġfourth":8023,"Ġpops":8024,"Ġintended":8025,"Ġvalent":8026,"althy":8027,"Ġprofessionalism":8028,"Ġgrandmother":8029,"Ġsummary":8030,"Ġapplebe":8031,"nstaff":8032,"Ġcontainers":8033,"Ġcelebration":8034,"Ġkilled":8035,"Ġbrews":8036,"Ġaccessories":8037,"Ġmirror":8038,"Ġsucker":8039,"Ġholidays":8040,"Ġantipast":8041,"Ġrainbow":8042,"Ġpushy":8043,"Ġfondue":8044,"Ġbaja":8045,"Ġdecember":8046,"Ġsneak":8047,"Ġarcade":8048,"Ġdesigner":8049,"Ġduty":8050,"Ġprocedure":8051,"Ġjewelry":8052,"Ġsorbet":8053,"Ġlaundry":8054,"Ġbaguette":8055,"Ġcalzone":8056,"Ġwondered":8057,"-\\":8058,"bor":8059,"fcr":8060,"long":8061,"tip":8062,"Ġach":8063,"Ġshan":8064,"Ġfyi":8065,"Ġmunch":8066,"Ġmama":8067,"Ġtony":8068,"Ġdull":8069,"Ġgest":8070,"lete":8071,"Ġbecomes":8072,"Ġforum":8073,"Ġster":8074,"Ġstained":8075,"Ġjus":8076,"Ġoutback":8077,"Ġloss":8078,"essions":8079,"Ġnovel":8080,"Ġuninsp":8081,"iana":8082,"xtail":8083,"Ġseemingly":8084,"nsorry":8085,"Ġthoughts":8086,"Ġsweets":8087,"Ġtalent":8088,"Ġfoam":8089,"Ġcardboard":8090,"Ġoblig":8091,"Ġgyros":8092,"Ġintim":8093,"Ġcabana":8094,"except":8095,"Ġcondes":8096,"Ġmatters":8097,"Ġcolorful":8098,"Ġneglect":8099,"Ġoddly":8100,"Ġchilled":8101,"Ġbrewery":8102,"Ġstatement":8103,"Ġspaces":8104,"Ġemailed":8105,"looking":8106,"Ġgallo":8107,"scot":8108,"Ġsolely":8109,"~~~~":8110,"Ġencourage":8111,"Ġcatering":8112,"Ġwiped":8113,"Ġbarista":8114,"Ġcamera":8115,"lasses":8116,"Ġchoosing":8117,"Ġcoffees":8118,"Ġorleans":8119,"eg":8120,"eal":8121,"emp":8122,"ext":8123,"nv":8124,"nle":8125,"nper":8126,"point":8127,"yum":8128,"Ġtand":8129,"Ġaust":8130,"ndec":8131,"Ġcone":8132,"Ġlatter":8133,"onn":8134,"isse":8135,"leep":8136,"Ġreve":8137,"ida":8138,"Ġheels":8139,"ioned":8140,"Ġmeas":8141,"ntry":8142,"ntip":8143,"Ġjen":8144,"Ġlifetime":8145,"Ġexagger":8146,"Ġrd":8147,"Ġroo":8148,"think":8149,"Ġcanad":8150,"Ġgreatly":8151,"Ġcoco":8152,"Ġaggress":8153,"Ġbubble":8154,"Ġtrays":8155,"Ġdelay":8156,"Ġherbs":8157,"Ġrevol":8158,"Ġcaring":8159,"Ġshoulders":8160,"Ġsandwh":8161,"Ġsatay":8162,"nsal":8163,"Ġmarried":8164,"Ġharsh":8165,"Ġrolling":8166,"Ġdripping":8167,"Ġdealer":8168,"libut":8169,"icana":8170,"Ġstreets":8171,"nces":8172,"Ġaccent":8173,"Ġpoached":8174,"Ġsticking":8175,"Ġmilitary":8176,"Ġcolored":8177,"Ġartists":8178,"Ġgreeting":8179,"Ġrented":8180,"Ġverm":8181,"Ġmotor":8182,"Ġdepends":8183,"Ġtaqu":8184,"Ġwaxing":8185,"Ġradio":8186,"Ġsprinkled":8187,"Ġrecords":8188,"uccino":8189,"Ġskillet":8190,"Ġcelery":8191,"Ġchimichan":8192,"Ġconclusion":8193,"Ġavoided":8194,"Ġbourbon":8195,"Ġeconomy":8196,"Ġhospitality":8197,"Ġincompetent":8198,"Ġtikka":8199,"Ġcarolina":8200,"Ġlibrary":8201,"36":8202,"bie":8203,"eame":8204,"gri":8205,"gate":8206,"nor":8207,"npar":8208,"ray":8209,"tom":8210,"try":8211,"Ġast":8212,"Ġbin":8213,"Ġmcc":8214,"hai":8215,"Ġpred":8216,"Ġpuck":8217,"Ġpod":8218,"Ġdil":8219,"Ġdairy":8220,"itors":8221,"Ġnort":8222,"Ġnurs":8223,"Ġwendy":8224,"Ġisnt":8225,"Ġhust":8226,"enta":8227,"Ġvin":8228,"ected":8229,"Ġknots":8230,"Ġpretend":8231,"Ġyea":8232,"Ġvisible":8233,"Ġresident":8234,"Ġcreat":8235,"nsp":8236,"Ġbasics":8237,"nex":8238,"Ġremin":8239,"Ġgripe":8240,"Ġfois":8241,"ispy":8242,"!!!!\\":8243,"Ġdepot":8244,"Ġdepress":8245,"npro":8246,"Ġapologies":8247,"Ġturf":8248,"small":8249,"Ġseparately":8250,"Ġcapacity":8251,"Ġjapan":8252,"Ġwontons":8253,"Ġcatching":8254,"Ġjersey":8255,"Ġcomfortably":8256,"Ġultra":8257,"Ġpinch":8258,"Ġhawaii":8259,"Ġoverlooking":8260,"Ġmechanic":8261,"Ġunimpressed":8262,"Ġmoderately":8263,"Ġfifteen":8264,"ncame":8265,"Ġwilted":8266,"Ġsundae":8267,"400":8268,"aired":8269,"ees":8270,"iven":8271,"las":8272,"oir":8273,"ober":8274,"put":8275,"pass":8276,"sk":8277,"vos":8278,"Ġtater":8279,"Ġoat":8280,"ndered":8281,"Ġcush":8282,"Ġmmmmm":8283,"Ġdy":8284,"oned":8285,"Ġnative":8286,"Ġhalibut":8287,"Ġbeet":8288,"aching":8289,"verted":8290,"urd":8291,"idents":8292,"Ġheight":8293,"Ġwhom":8294,"Ġracks":8295,"essed":8296,"ulation":8297,"Ġsomeplace":8298,"care":8299,"Ġarts":8300,"Ġclar":8301,"Ġbrook":8302,"achio":8303,"bell":8304,"Ġlastly":8305,"Ġboots":8306,"Ġspotted":8307,"Ġwarn":8308,"iety":8309,"Ġlouis":8310,"Ġpolenta":8311,"Ġpollo":8312,"Ġrides":8313,"Ġproviding":8314,"Ġcloses":8315,"nplease":8316,"Ġfaced":8317,"Ġcontinu":8318,"Ġpanera":8319,"Ġattitudes":8320,"Ġgrande":8321,"Ġslept":8322,"Ġregards":8323,"crowd":8324,"ntoday":8325,"stein":8326,"Ġexceptionally":8327,"Ġgallery":8328,"Ġultimate":8329,"Ġpromotion":8330,"american":8331,"Ġescal":8332,"____":8333,"Ġsignificant":8334,"Ġtransportation":8335,"Ġshelves":8336,"Ġaquarium":8337,"Ġsplurge":8338,"Ġunnecessary":8339,"Ġjungle":8340,"Ġdelectable":8341,"Ġreminisc":8342,"*\\":8343,"ault":8344,"cre":8345,"ere":8346,"home":8347,"looked":8348,"size":8349,"Ġtit":8350,"Ġauss":8351,"heart":8352,"Ġbiz":8353,"Ġdread":8354,"Ġgang":8355,"Ġlying":8356,"itters":8357,"isa":8358,"Ġhaunt":8359,"eter":8360,"Ġstolen":8361,"kel":8362,"Ġsofa":8363,"Ġasu":8364,"Ġjr":8365,"Ġjamb":8366,"elier":8367,"Ġlif":8368,"Ġsehr":8369,"Ġchuck":8370,"Ġupside":8371,"Ġroy":8372,"Ġexpand":8373,"Ġdisney":8374,"Ġquail":8375,"Ġproof":8376,"Ġprawn":8377,"Ġanyhow":8378,"Ġcrumb":8379,"Ġdeciding":8380,"Ġtears":8381,"Ġeaters":8382,"Ġtrump":8383,"Ġdelux":8384,"Ġtrim":8385,"Ġwalnut":8386,"ometown":8387,"Ġsteel":8388,"Ġextract":8389,"fferent":8390,"Ġbreaks":8391,"nget":8392,"Ġpaul":8393,"Ġskirt":8394,"Ġwonderfully":8395,"nits":8396,"Ġmentioning":8397,"Ġwarmer":8398,"Ġwarmed":8399,"Ġunderstandable":8400,"Ġseasons":8401,"Ġmoments":8402,"Ġhangout":8403,"Ġcrusty":8404,"Ġhighest":8405,"Ġramsay":8406,"Ġrefunded":8407,"probably":8408,"Ġpedicures":8409,"flower":8410,"Ġattempting":8411,"Ġdeserved":8412,"Ġcontained":8413,"Ġtuesdays":8414,"Ġsouff":8415,"Ġrandomly":8416,"Ġdoughy":8417,"Ġfighting":8418,"Ġassistance":8419,"Ġgratin":8420,"Ġleftover":8421,"Ġipa":8422,"nreally":8423,"nokay":8424,"Ġtherapist":8425,"Ġporter":8426,"Ġskimpy":8427,"Ġenthusiastic":8428,"accio":8429,"Ġdesperate":8430,"Ġbachelorette":8431,"Ġtelevision":8432,"onzola":8433,"Ġstunning":8434,"Ġjourney":8435,"cending":8436,"Ġsearched":8437,"Ġexcitement":8438,"?),":8439,"bas":8440,"bab":8441,"cake":8442,"cles":8443,"ii":8444,"kk":8445,"nels":8446,"ueless":8447,"Ġ.\\":8448,"Ġsnot":8449,"Ġpowd":8450,"Ġpalet":8451,"Ġgorg":8452,"Ġnick":8453,"Ġeld":8454,"Ġears":8455,"Ġthom":8456,"Ġthirty":8457,"Ġrear":8458,"Ġreward":8459,"Ġstingy":8460,"Ġhen":8461,"ados":8462,"Ġjun":8463,"Ġjune":8464,"chin":8465,"herita":8466,"Ġruth":8467,"Ġabund":8468,"Ġcaul":8469,"venir":8470,"Ġdisorganized":8471,"Ġdisrespect":8472,"Ġamuse":8473,"Ġeateries":8474,"Ġtrucks":8475,"udo":8476,"Ġblowing":8477,"Ġshowers":8478,"Ġglance":8479,"Ġmarathon":8480,"Ġbreaking":8481,"Ġjokes":8482,"Ġhandling":8483,"issue":8484,"nwas":8485,"Ġrecip":8486,"Ġloung":8487,"Ġslower":8488,"ncan":8489,"umpy":8490,"Ġbathtub":8491,"Ġideas":8492,"lette":8493,"Ġimmediate":8494,"Ġgrille":8495,"Ġthicker":8496,"eeee":8497,"Ġbrid":8498,"Ġdisgusted":8499,"Ġlearning":8500,"Ġdumped":8501,"Ġbeside":8502,"Ġaccessible":8503,"Ġfryer":8504,"Ġtartare":8505,"natmosphere":8506,"Ġconnection":8507,"Ġdisplayed":8508,"Ġhistor":8509,"Ġinstructor":8510,"drink":8511,"Ġrenovation":8512,"Ġlocker":8513,"Ġoctober":8514,"Ġblended":8515,"Ġinspired":8516,"Ġkimchi":8517,"Ġresponsibility":8518,"Ġpeaks":8519,"Ġsqueezed":8520,"Ġchunky":8521,"Ġallergies":8522,"Ġsignificantly":8523,"Ġincrease":8524,"Ġlamps":8525,"Ġreheated":8526,"Ġvirtually":8527,"Ġarchitecture":8528,"Ġwarehouse":8529,"Ġextraordinary":8530,"Ġstructure":8531,"Ġtandoor":8532,"500":8533,"fb":8534,"hour":8535,"lower":8536,"okes":8537,"sch":8538,"uh":8539,"Ġaest":8540,"ndid":8541,"Ġmister":8542,"Ġmahi":8543,"Ġglend":8544,"Ġnous":8545,"utes":8546,"usually":8547,"Ġthread":8548,"aces":8549,"Ġreaction":8550,"rial":8551,"Ġasleep":8552,"Ġliber":8553,"Ġsauna":8554,"Ġkung":8555,"Ġfra":8556,"Ġfruity":8557,"Ġallergy":8558,"Ġuseless":8559,"Ġros":8560,"cap":8561,"agues":8562,"Ġcrout":8563,"Ġclo":8564,"Ġclueless":8565,"olone":8566,"Ġcompe":8567,"Ġcomplic":8568,"ressive":8569,"Ġdied":8570,"Ġlotus":8571,"Ġcarmel":8572,"Ġacid":8573,"Ġfeelings":8574,"Ġexpectation":8575,"nof":8576,"lectic":8577,"Ġbold":8578,"Ġpaste":8579,"Ġfreeway":8580,"Ġpatients":8581,"Ġlashes":8582,"Ġcostumes":8583,"year":8584,"Ġinsist":8585,"Ġimo":8586,"Ġdoub":8587,"Ġcorners":8588,"Ġbanh":8589,"Ġallowing":8590,"Ġpouring":8591,"Ġconstant":8592,"worker":8593,"Ġcompetent":8594,"Ġtartar":8595,"iltmore":8596,"Ġlands":8597,"Ġbaseball":8598,"Ġcucumbers":8599,"Ġvolunt":8600,"charge":8601,"Ġskeptical":8602,"Ġdomest":8603,"ivalent":8604,"Ġcarpaccio":8605,"Ġbulk":8606,"Ġcroissants":8607,"Ġtropicana":8608,"foam":8609,"Ġmarsh":8610,"Ġaccidentally":8611,"Ġapproximately":8612,"Ġpistachio":8613,"Ġactivities":8614,"Ġutterly":8615,"pretty":8616,"Ġmichelin":8617,"Ġnovember":8618,"Ġcanadian":8619,"Ġoatmeal":8620,"Ġglendale":8621,"38":8622,":)\\":8623,"ares":8624,"bal":8625,"bies":8626,"gment":8627,"mind":8628,"sw":8629,"Ġ**":8630,"Ġtwe":8631,"Ġtube":8632,"Ġaka":8633,"inness":8634,"Ġbiltmore":8635,"Ġfer":8636,"Ġfen":8637,"Ġfog":8638,"Ġfits":8639,"Ġpale":8640,"Ġppl":8641,"icles":8642,"utive":8643,"Ġbee":8644,"Ġhometown":8645,"stop":8646,"Ġmere":8647,"chy":8648,"Ġsamb":8649,"Ġtheres":8650,"Ġalbeit":8651,"Ġtie":8652,"Ġtim":8653,"Ġtile":8654,"Ġkinks":8655,"Ġkios":8656,"ulent":8657,"Ġdept":8658,"Ġoverdone":8659,"Ġprevent":8660,"agers":8661,"Ġprove":8662,"Ġrestur":8663,"Ġmole":8664,"Ġ199":8665,"Ġcla":8666,"together":8667,"Ġwalgre":8668,"Ġokra":8669,"Ġphil":8670,"Ġkevin":8671,"Ġdeliciousness":8672,"Ġelvis":8673,"their":8674,"Ġquicker":8675,"Ġhuh":8676,"Ġconsult":8677,"Ġpleasing":8678,"Ġtrend":8679,"Ġcarefully":8680,"nbest":8681,"Ġindic":8682,"Ġstrang":8683,"Ġstyro":8684,"Ġseattle":8685,"Ġzum":8686,"Ġzomb":8687,"going":8688,"Ġmaid":8689,"Ġpainting":8690,"Ġwedge":8691,"Ġvenues":8692,"Ġdirected":8693,"Ġcorrected":8694,"Ġpetite":8695,"Ġboneless":8696,"Ġtowers":8697,"Ġmagical":8698,"Ġaccepted":8699,"Ġclaims":8700,"Ġvideos":8701,"Ġgentlemen":8702,"Ġfashioned":8703,"Ġfocused":8704,"two":8705,"Ġfortune":8706,"Ġtheaters":8707,"Ġdispens":8708,"Ġweekdays":8709,"Ġsharp":8710,"Ġspirit":8711,"Ġallergic":8712,"Ġslammed":8713,"Ġjanuary":8714,"Ġgracious":8715,"Ġsenior":8716,"Ġranche":8717,"Ġsurvive":8718,"Ġchosen":8719,"39":8720,"aise":8721,"bus":8722,"jac":8723,"len":8724,"may":8725,"mill":8726,"ox":8727,"please":8728,"ua":8729,"Ġaus":8730,"Ġsher":8731,"Ġsanta":8732,"Ġos":8733,"Ġoxtail":8734,"Ġbolog":8735,"Ġbamb":8736,"erly":8737,"Ġfudge":8738,"Ġmt":8739,"ounce":8740,"Ġgro":8741,"enn":8742,"Ġlick":8743,"Ġnine":8744,"utions":8745,"lement":8746,"ooo":8747,"Ġyo":8748,"icelli":8749,"Ġasap":8750,"Ġjale":8751,"eline":8752,"Ġalter":8753,"Ġshr":8754,"Ġchoy":8755,"ilty":8756,"Ġchem":8757,"oused":8758,"izon":8759,"Ġquit":8760,"Ġquino":8761,"Ġfeast":8762,"Ġmanger":8763,"owner":8764,"Ġ23":8765,"Ġ28":8766,"Ġrig":8767,"Ġdrinker":8768,"Ġgray":8769,"Ġappl":8770,"Ġtram":8771,"Ġblan":8772,"beef":8773,"Ġcarbon":8774,".....\\":8775,"Ġfreshest":8776,"Ġplacing":8777,"Ġhandy":8778,"Ġreturns":8779,"Ġspotty":8780,"Ġrepaired":8781,"Ġpao":8782,"Ġvari":8783,"Ġheadache":8784,"Ġbaggage":8785,"Ġrelated":8786,"Ġcentre":8787,"Ġestimate":8788,"Ġcrusted":8789,"Ġpalm":8790,"Ġcombos":8791,"Ġdeserts":8792,"Ġtransaction":8793,"Ġfailure":8794,"Ġtaxes":8795,"Ġbench":8796,"Ġcircle":8797,"Ġcarrying":8798,"Ġbasketball":8799,"Ġpurple":8800,"yyyy":8801,"Ġaccordingly":8802,"Ġroughly":8803,"Ġexhibits":8804,"Ġfrustration":8805,"Ġfreezing":8806,"Ġbirds":8807,"Ġsqueeze":8808,"Ġdedicated":8809,"Ġidiot":8810,"didn":8811,"Ġrepresentative":8812,"Ġgigantic":8813,"Ġarrangement":8814,"Ġchalk":8815,"Ġcappuccino":8816,"Ġnurse":8817,"Ġmargherita":8818,"Ġrabbit":8819,"nneedless":8820,"Ġcondescending":8821,"Ġgorgonzola":8822,"Ġcaulif":8823,"egg":8824,"fri":8825,"iel":8826,"mble":8827,"nagain":8828,"Ġtent":8829,"Ġtummy":8830,"Ġaim":8831,"Ġwoo":8832,"Ġfulf":8833,"Ġpir":8834,"eding":8835,"Ġdash":8836,"Ġnu":8837,"atient":8838,"Ġwasher":8839,"ani":8840,"Ġweigh":8841,"Ġbei":8842,"Ġthirsty":8843,"Ġreached":8844,"aying":8845,"aylor":8846,"rir":8847,"rian":8848,"Ġhence":8849,"Ġunif":8850,"Ġudon":8851,"Ġsoph":8852,"Ġwhim":8853,"Ġwhip":8854,"gend":8855,"Ġloving":8856,"Ġchest":8857,"Ġbacked":8858,"oses":8859,"izer":8860,"Ġpric":8861,"Ġsheer":8862,"Ġdrug":8863,"Ġbrat":8864,"Ġroommate":8865,"Ġappalled":8866,"Ġguinness":8867,"Ġtricks":8868,"Ġdelta":8869,"apparently":8870,"Ġpercent":8871,"Ġbusboy":8872,"Ġmarrow":8873,"price":8874,"Ġshaking":8875,"Ġshabu":8876,"Ġunderne":8877,"next":8878,"Ġrefried":8879,"ogi":8880,"Ġstuffy":8881,"iera":8882,"??\\":8883,"anyaki":8884,"Ġclubbing":8885,"cia":8886,"Ġcalor":8887,"Ġdelivers":8888,"Ġauthor":8889,"burg":8890,"Ġtempted":8891,"Ġproduction":8892,"Ġsmelly":8893,"oooooooo":8894,"Ġlaying":8895,"Ġdaughters":8896,"Ġjeff":8897,"Ġequal":8898,"Ġsituated":8899,"Ġrounds":8900,"Ġramsey":8901,"Ġgifts":8902,"Ġeric":8903,"Ġmondays":8904,"ttes":8905,"Ġpenn":8906,"Ġsigning":8907,"Ġfrequented":8908,"Ġurban":8909,"Ġdisplays":8910,"Ġdetailed":8911,"Ġsubstant":8912,"Ġsusp":8913,"Ġquesadillas":8914,"Ġdragon":8915,"Ġassociates":8916,"Ġinspection":8917,"Ġabsurd":8918,"Ġhomeless":8919,"Ġremodel":8920,"Ġtropical":8921,"Ġgrape":8922,"umptious":8923,"Ġpuffs":8924,"Ġbrowsing":8925,"walk":8926,"ustomer":8927,"Ġdrizzled":8928,"Ġethnic":8929,"Ġcommercial":8930,"Ġovercharged":8931,"Ġcategory":8932,"Ġexercise":8933,"Ġreminiscent":8934,"Ġquinoa":8935,"Ġcauliflower":8936,"Ġunderneath":8937,"250":8938,"37":8939,"\\\\":8940,"aig":8941,"both":8942,"fied":8943,"nese":8944,"rough":8945,"urious":8946,"Ġoce":8947,"Ġbol":8948,"Ġcats":8949,"Ġmak":8950,"hamed":8951,"asis":8952,"Ġgm":8953,"iti":8954,"Ġnaked":8955,"Ġniece":8956,"atz":8957,"vering":8958,"Ġforks":8959,"Ġhired":8960,"mean":8961,"Ġmead":8962,"Ġplants":8963,"Ġashamed":8964,"illo":8965,"Ġouts":8966,"Ġrick":8967,"Ġspas":8968,"Ġsuc":8969,"Ġsuis":8970,"ilation":8971,"open":8972,"Ġcomed":8973,"uling":8974,"izers":8975,"Ġdefi":8976,"Ġquart":8977,"Ġconvey":8978,"Ġconverted":8979,"Ġseek":8980,"Ġevenings":8981,"Ġcrav":8982,"Ġbrad":8983,"Ġsmiled":8984,"Ġguilty":8985,"Ġchaos":8986,"Ġsli":8987,"arest":8988,"Ġflavoring":8989,"Ġlunchtime":8990,"Ġhispan":8991,"ucky":8992,"Ġbod":8993,"Ġshabby":8994,"Ġroller":8995,"Ġpots":8996,"Ġlawn":8997,"Ġcounty":8998,"Ġstuffing":8999,"Ġcardio":9000,"ncr":9001,"chair":9002,"Ġzen":9003,"Ġrelish":9004,"Ġpassable":9005,"Ġsignage":9006,"Ġceil":9007,"Ġinspect":9008,"Ġpole":9009,"Ġblackened":9010,"Ġbutternut":9011,"Ġfridays":9012,"Ġconsists":9013,"Ġprovolone":9014,"Ġhealthier":9015,"nlong":9016,"Ġjean":9017,"Ġoutdoors":9018,"Ġorganization":9019,"Ġomelets":9020,"Ġagreement":9021,"Ġerr":9022,"Ġrais":9023,"nstill":9024,"Ġtubs":9025,"Ġsouvenir":9026,"onnaise":9027,"marily":9028,"Ġnaturally":9029,"Ġbrussel":9030,"Ġreported":9031,"Ġhorrid":9032,"Ġflew":9033,"Ġloads":9034,"Ġsupreme":9035,"Ġpreparing":9036,"Ġstacked":9037,"Ġgumbo":9038,"hotel":9039,"Ġmilkshakes":9040,"Ġaisles":9041,"Ġresolved":9042,"dinner":9043,"Ġinflu":9044,"onestly":9045,"Ġsparkling":9046,"Ġpeaceful":9047,"interested":9048,"Ġseverely":9049,"Ġsammy":9050,"Ġteppanyaki":9051,"Ġodor":9052,"Ġmethod":9053,"Ġsections":9054,"Ġintimid":9055,"Ġrooft":9056,"Ġvermicelli":9057,"Ġdepressing":9058,"Ġstyrofoam":9059,"?!\\":9060,"backs":9061,"cool":9062,"die":9063,"give":9064,"ht":9065,"his":9066,"ikes":9067,"lar":9068,"lol":9069,"mor":9070,"nco":9071,"obs":9072,"pha":9073,"rise":9074,"taking":9075,"zu":9076,"Ġ!\\":9077,"Ġwha":9078,"inate":9079,"Ġborn":9080,"Ġpy":9081,"Ġpow":9082,"Ġpiled":9083,"Ġga":9084,"Ġgain":9085,"Ġlink":9086,"Ġnation":9087,"atta":9088,"otti":9089,"arre":9090,"Ġhmmm":9091,"Ġhoust":9092,"ecause":9093,"Ġexotic":9094,"Ġrh":9095,"unless":9096,"ulty":9097,"Ġoverhead":9098,"Ġoverfl":9099,"Ġprob":9100,"Ġoffended":9101,"Ġpeep":9102,"Ġdrawn":9103,"Ġ---":9104,"Ġcomps":9105,"Ġtee":9106,"Ġgrate":9107,"Ġgrist":9108,"Ġuncle":9109,"Ġguit":9110,"Ġchase":9111,"Ġslab":9112,"Ġnewsp":9113,"ember":9114,"Ġbob":9115,"Ġbreadsticks":9116,"ngot":9117,"liest":9118,"nbecause":9119,"Ġprimarily":9120,"ĠĠĠĠĠĠĠ":9121,"Ġstole":9122,"Ġposit":9123,"Ġrelations":9124,"Ġmornings":9125,"Ġrequires":9126,"Ġmessages":9127,"Ġpurchases":9128,"Ġsorta":9129,"Ġrefilling":9130,"Ġsmelling":9131,"Ġemails":9132,"Ġgrabbing":9133,"Ġrenting":9134,"Ġtouching":9135,"Ġsporting":9136,"Ġvegetarians":9137,"Ġrounded":9138,"Ġimprov":9139,"Ġverde":9140,"Ġangus":9141,"Ġcraps":9142,"Ġquestioned":9143,"Ġcelebrating":9144,"seriously":9145,"Ġsavings":9146,"mmmmmmmm":9147,"Ġsupporting":9148,"Ġpuree":9149,"Ġjumping":9150,"Ġattraction":9151,"Ġelectric":9152,"Ġleads":9153,"Ġsensitive":9154,"Ġsprinkles":9155,"Ġinconvenient":9156,"Ġinquired":9157,"Ġspiciness":9158,"waitress":9159,"Ġinterrupted":9160,"known":9161,"Ġgradu":9162,"reakfast":9163,"Ġoakland":9164,"Ġmsg":9165,"Ġcriticism":9166,"Ġbento":9167,"nparking":9168,"Ġtandoori":9169,"Ġmarshmall":9170,"Ġuniform":9171,"Ġdefiantly":9172,"Ġhispanic":9173,"Ġceilings":9174,"based":9175,"cd":9176,"card":9177,"cons":9178,"dry":9179,"fly":9180,"gian":9181,"gang":9182,"high":9183,"lad":9184,"late":9185,"lists":9186,"rare":9187,"show":9188,"ws":9189,"Ġtro":9190,"Ġsic":9191,"Ġoasis":9192,"Ġbally":9193,"Ġpf":9194,"ington":9195,"Ġgates":9196,"esque":9197,"ller":9198,"atched":9199,"isch":9200,"isty":9201,"Ġhallow":9202,"Ġeel":9203,"Ġyup":9204,"lyn":9205,"Ġstain":9206,"Ġstap":9207,"Ġstamp":9208,"Ġhefty":9209,"Ġmeasure":9210,"aste":9211,"Ġnep":9212,"Ġseries":9213,"Ġrows":9214,"Ġshy":9215,"Ġloll":9216,"ilia":9217,"Ġwouldnt":9218,"Ġvd":9219,"Ġvir":9220,"rylic":9221,"ulate":9222,"ulated":9223,"izen":9224,"Ġleak":9225,"Ġprogress":9226,"Ġpeps":9227,"Ġcraig":9228,"Ġapplic":9229,"apper":9230,"Ġbeforehand":9231,"actory":9232,"Ġscattered":9233,"gging":9234,"oster":9235,"Ġacrylic":9236,"Ġglam":9237,"Ġglitter":9238,"Ġpasty":9239,"uffed":9240,"Ġfunction":9241,"Ġinstant":9242,"Ġbreakfasts":9243,"Ġowns":9244,"onsin":9245,"notch":9246,"Ġwok":9247,"Ġgrimal":9248,"Ġindi":9249,"Ġgenius":9250,"Ġ:/":9251,"Ġbilling":9252,"Ġairy":9253,"Ġzone":9254,"Ġcurries":9255,"Ġsubtle":9256,"Ġsubject":9257,"Ġspeedy":9258,"Ġscream":9259,"Ġhungover":9260,"Ġintrig":9261,"Ġfait":9262,"Ġsampling":9263,"Ġscrumptious":9264,"Ġstraws":9265,"Ġtechs":9266,"isconsin":9267,"Ġsalesman":9268,"Ġapartments":9269,"Ġdumpling":9270,"Ġcompetitive":9271,"Ġmirrors":9272,"!\\\"\\":9273,"Ġcantina":9274,"Ġcigar":9275,"Ġmacarons":9276,"Ġipod":9277,"Ġweights":9278,"Ġinstructors":9279,"super":9280,"Ġindustrial":9281,"Ġcharacters":9282,"Ġencounter":9283,"Ġwandering":9284,"Ġbrowse":9285,"Ġseeds":9286,"Ġcontrast":9287,"Ġeclectic":9288,"Ġconcoction":9289,"Ġescorted":9290,"Ġlunches":9291,"quisite":9292,"buds":9293,"Ġaggressive":9294,"Ġchimichanga":9295,"crowded":9296,"Ġrooftop":9297,"Ġpepsi":9298,"32":9299,"cer":9300,"col":9301,"ived":9302,"mined":9303,"net":9304,"nent":9305,"oved":9306,"western":9307,"Ġtissue":9308,"Ġafr":9309,"Ġwore":9310,"rep":9311,"Ġbday":9312,"Ġft":9313,"Ġmia":9314,"have":9315,"ashing":9316,"asian":9317,"Ġtoe":9318,"Ġtoss":9319,"Ġdc":9320,"Ġdass":9321,"Ġgimm":9322,"itude":9323,"another":9324,"anged":9325,"otal":9326,"Ġhal":9327,"lev":9328,"Ġstared":9329,"Ġstiff":9330,"ido":9331,"rock":9332,"Ġsop":9333,"Ġancho":9334,"Ġjones":9335,"Ġnearest":9336,"Ġgoodwill":9337,"Ġalarm":9338,"Ġshiny":9339,"Ġsugary":9340,"Ġvig":9341,"Ġcane":9342,"Ġexpired":9343,"Ġcox":9344,"Ġcoating":9345,"Ġwaits":9346,"Ġdislike":9347,"Ġoverd":9348,"Ġovernight":9349,"tyard":9350,"Ġyours":9351,"Ġflair":9352,"Ġflower":9353,"\\\")":9354,"Ġdrown":9355,"Ġfriendliness":9356,"umbo":9357,"Ġcompon":9358,"Ġsmack":9359,"assion":9360,"Ġ32":9361,"Ġblows":9362,"Ġslip":9363,"Ġperman":9364,"Ġnewest":9365,"Ġcarib":9366,"Ġbusier":9367,"Ġsmallest":9368,"Ġwrist":9369,"Ġcleaners":9370,"Ġglaze":9371,"Ġmargin":9372,"Ġdifferently":9373,"Ġpatience":9374,"Ġlargest":9375,"isserie":9376,"Ġinstance":9377,"nwait":9378,"Ġcounting":9379,"Ġcountless":9380,"Ġfillings":9381,"nboth":9382,"standard":9383,"licop":9384,"Ġpackaged":9385,"Ġshorts":9386,"Ġpicnic":9387,"nchicken":9388,"Ġexplains":9389,"Ġgyoz":9390,"zzy":9391,"Ġintention":9392,"Ġcabanas":9393,"Ġpanang":9394,"shirts":9395,"existent":9396,"Ġmistaken":9397,"Ġwinning":9398,"Ġseparated":9399,"Ġentertained":9400,"nhigh":9401,"Ġsmoothly":9402,"Ġversus":9403,"Ġwestin":9404,"Ġconvince":9405,"Ġcolleagues":9406,"Ġthrift":9407,"Ġbuddies":9408,"nbefore":9409,"Ġflagged":9410,"Ġfuel":9411,"Ġbullsh":9412,"Ġfalse":9413,"nupdate":9414,"Ġcigarettes":9415,"Ġdeduct":9416,"Ġcobbler":9417,"Ġwitnessed":9418,"Ġmedicine":9419,"Ġcommunicate":9420,"Ġmystery":9421,"Ġstools":9422,"Ġseptember":9423,"Ġcotton":9424,"scottsdale":9425,"Ġprawns":9426,"Ġpalette":9427,"Ġthomas":9428,"Ġcomplicated":9429,"Ġbolognese":9430,"Ġblanket":9431,"Ġocean":9432,"Ġhalloween":9433,"Ġvdara":9434,"dow":9435,"eper":9436,"fun":9437,"nlo":9438,"pedi":9439,"site":9440,"zard":9441,"Ġtact":9442,"Ġtask":9443,"Ġtaylor":9444,"Ġawe":9445,"hem":9446,"Ġick":9447,"Ġsigh":9448,"Ġbom":9449,"Ġbake":9450,"Ġcd":9451,"Ġmich":9452,"has":9453,"Ġpong":9454,"Ġgps":9455,"Ġlatt":9456,"Ġnc":9457,"athered":9458,"Ġecho":9459,"Ġinha":9460,"Ġrect":9461,"Ġhier":9462,"still":9463,"Ġsoaking":9464,"Ġjason":9465,"anti":9466,"Ġneon":9467,"Ġsage":9468,"Ġchicks":9469,"quality":9470,"ilst":9471,"Ġvie":9472,"Ġvary":9473,"Ġcaffe":9474,"Ġworries":9475,"Ġnov":9476,"Ġcob":9477,"Ġcloth":9478,"Ġveter":9479,"Ġhott":9480,"Ġbreat":9481,"uded":9482,"bean":9483,"appoint":9484,"Ġrevis":9485,"Ġscent":9486,"Ġbusser":9487,"Ġ48":9488,"ensed":9489,"Ġelbow":9490,"Ġimpatient":9491,"Ġglor":9492,"Ġhomey":9493,"Ġharbor":9494,"Ġcourtyard":9495,"Ġmonster":9496,"ification":9497,"Ġremained":9498,"Ġreduction":9499,"Ġskins":9500,"Ġstring":9501,"Ġchocolates":9502,"Ġreluct":9503,"Ġstickers":9504,"Ġwindsh":9505,"Ġintent":9506,"Ġapologizing":9507,"Ġpaneer":9508,"Ġemot":9509,"Ġholds":9510,"Ġtaps":9511,"Ġthinly":9512,"Ġspeakers":9513,"Ġmisle":9514,"Ġaux":9515,"Ġcompliments":9516,"Ġbothering":9517,"Ġupdating":9518,"Ġignor":9519,"nnothing":9520,"Ġcontacts":9521,"Ġcracker":9522,"Ġluxurious":9523,"Ġrobin":9524,"Ġjudging":9525,"Ġexecutive":9526,"Ġipad":9527,"Ġwhisky":9528,"Ġpecans":9529,"Ġescar":9530,"Ġhesitate":9531,"Ġprofile":9532,"Ġfloat":9533,"Ġfooled":9534,"Ġsurface":9535,"Ġsomme":9536,"Ġspirits":9537,"taste":9538,"umption":9539,"Ġunimpressive":9540,"Ġbaristas":9541,"Ġidiots":9542,"Ġexcessive":9543,"Ġelectronic":9544,"appetizing":9545,"Ġlychee":9546,"ndespite":9547,"Ġhunger":9548,"Ġreschedule":9549,"Ġpharmacy":9550,"Ġsandwhich":9551,"Ġcreativity":9552,"Ġelderly":9553,"Ġcroutons":9554,"Ġdomestic":9555,"jacent":9556,"Ġcravings":9557,"Ġpositives":9558,"Ġlollip":9559,"Ġwindshield":9560,"33":9561,"cat":9562,"cup":9563,"cuts":9564,"dis":9565,"first":9566,"fait":9567,"lunch":9568,"make":9569,"nplus":9570,"pizza":9571,"rass":9572,"tan":9573,"tles":9574,"uel":9575,"wall":9576,"ya":9577,"yard":9578,"zens":9579,"Ġapr":9580,"hell":9581,"Ġwth":9582,"rete":9583,"Ġbib":9584,"Ġfitting":9585,"Ġfaux":9586,"Ġcc":9587,"Ġcore":9588,"Ġcure":9589,"Ġmaze":9590,"inge":9591,"Ġlen":9592,"Ġnom":9593,"Ġnest":9594,"Ġnerve":9595,"atics":9596,"Ġinten":9597,"Ġbeets":9598,"almost":9599,"Ġhelicop":9600,"add":9601,"Ġsore":9602,"cht":9603,"Ġkar":9604,"Ġshorter":9605,"Ġcann":9606,"Ġnostal":9607,"Ġwhats":9608,"Ġoverlooked":9609,"Ġquiche":9610,"ounds":9611,"Ġoffensive":9612,"Ġmanhat":9613,"Ġ27":9614,"ista":9615,"Ġapparent":9616,"Ġunappetizing":9617,"Ġadjacent":9618,"Ġburst":9619,"approp":9620,"Ġtrivia":9621,"Ġperk":9622,"Ġacoust":9623,"Ġcreating":9624,"Ġparfait":9625,"Ġamazon":9626,"Ġaddressed":9627,"Ġmonkey":9628,"Ġpointing":9629,"nye":9630,"nfriend":9631,"athy":9632,"ucing":9633,"Ġindia":9634,"Ġpolit":9635,"gran":9636,"Ġinsulting":9637,"Ġjuke":9638,"bruary":9639,"iva":9640,"Ġpains":9641,"balls":9642,"Ġwedges":9643,"Ġcabin":9644,"Ġgrandma":9645,"Ġfilter":9646,"Ġmicro":9647,"Ġspinning":9648,"Ġequivalent":9649,"pho":9650,"umbling":9651,"Ġbleh":9652,"Ġtechni":9653,"Ġfallen":9654,"lights":9655,"Ġnoticeable":9656,"Ġbottomless":9657,"Ġverizon":9658,"Ġattendants":9659,"Ġhamachi":9660,"Ġbrewed":9661,"Ġdelighted":9662,"Ġdevil":9663,"spicy":9664,"Ġrotation":9665,"cano":9666,"Ġconditioner":9667,"Ġinstallation":9668,"Ġobsc":9669,"Ġobserv":9670,"Ġpromoter":9671,"Ġrenovations":9672,"Ġdusty":9673,"lliant":9674,"Ġsamosas":9675,"Ġartichokes":9676,"Ġmimosa":9677,"Ġguaranteed":9678,"Ġconfirmation":9679,"Ġloyalty":9680,"Ġmattress":9681,"Ġguns":9682,"Ġhuevos":9683,"Ġgloves":9684,"Ġcesar":9685,"Ġwireless":9686,"Ġmagazine":9687,"Ġriviera":9688,"medium":9689,"Ġempanadas":9690,"Ġpowdered":9691,"Ġfennel":9692,"Ġbamboo":9693,"Ġchemical":9694,"Ġgrateful":9695,"Ġstaples":9696,"Ġnephew":9697,"Ġgrimaldi":9698,"Ġintense":9699,"appropri":9700,"bute":9701,"clock":9702,"df":9703,"dict":9704,"norm":9705,"pork":9706,"watch":9707,"Ġaj":9708,"Ġsich":9709,"rey":9710,"Ġfoul":9711,"Ġfoster":9712,"Ġcact":9713,"ham":9714,"hare":9715,"asc":9716,"Ġpbr":9717,"Ġdd":9718,"Ġlard":9719,"icans":9720,"omg":9721,"omp":9722,"Ġinnov":9723,"Ġreverse":9724,"Ġyikes":9725,"always":9726,"Ġhoo":9727,"Ġhmm":9728,"adia":9729,"irk":9730,"cell":9731,"Ġjaw":9732,"astically":9733,"sea":9734,"Ġsuits":9735,"amazing":9736,"Ġvic":9737,"Ġcomme":9738,"ieve":9739,"Ġnoch":9740,"Ġexper":9741,"Ġexpense":9742,"Ġexpanded":9743,"Ġcoats":9744,"Ġconno":9745,"Ġproport":9746,"Ġmol":9747,"Ġdrum":9748,"Ġtastier":9749,"Ġbrag":9750,"Ġbrush":9751,"umin":9752,"Ġtear":9753,"Ġunion":9754,"Ġunorganized":9755,"comm":9756,"Ġado":9757,"Ġadore":9758,"Ġblaring":9759,"erties":9760,"Ġsteer":9761,"Ġcarb":9762,"Ġmayonnaise":9763,"Ġdelicate":9764,"ension":9765,"lpful":9766,"Ġpays":9767,"Ġstrikes":9768,"Ġ101":9769,"Ġhoag":9770,"Ġreduced":9771,"???\\":9772,"Ġstove":9773,"Ġze":9774,"Ġhairs":9775,"Ġcentury":9776,"Ġpolic":9777,"Ġinteraction":9778,"Ġsticker":9779,"Ġconfidence":9780,"Ġgyms":9781,"Ġartwork":9782,"Ġsnap":9783,"Ġannual":9784,"Ġpapaya":9785,"Ġelement":9786,"Ġtouristy":9787,"Ġlayers":9788,"Ġmiche":9789,"Ġopinions":9790,"Ġclearance":9791,"Ġbridge":9792,"Ġqueens":9793,"Ġpractices":9794,"bbq":9795,"oba":9796,"Ġdelivering":9797,"Ġprivacy":9798,"Ġdevoured":9799,"Ġpatiently":9800,"Ġventured":9801,"Ġsubstance":9802,"Ġ:(\\":9803,"Ġessen":9804,"................":9805,"Ġargued":9806,"Ġargument":9807,"Ġfiancee":9808,"Ġsiam":9809,"Ġepis":9810,"Ġprofit":9811,"Ġassorted":9812,"Ġunbelievably":9813,"Ġshooting":9814,"Ġfortunate":9815,"Ġmaintain":9816,"Ġprinc":9817,"Ġphysic":9818,"mexican":9819,"Ġtelevisions":9820,"Ġproperties":9821,"Ġaddicting":9822,"Ġblankets":9823,"Ġarrogant":9824,"Ġfettucc":9825,"Ġeuropean":9826,"Ġgesture":9827,"Ġnorthern":9828,"Ġaussi":9829,"Ġbizarre":9830,"Ġrecipes":9831,"Ġrancheros":9832,"Ġnostalg":9833,"Ġconnoisse":9834,"gogi":9835,"iors":9836,"je":9837,"rical":9838,"tops":9839,"Ġsed":9840,"Ġsung":9841,"iner":9842,"eral":9843,"Ġfanc":9844,"Ġmmm":9845,"half":9846,"Ġpant":9847,"Ġpitch":9848,"atable":9849,"othing":9850,"Ġhazel":9851,"arin":9852,"Ġinner":9853,"Ġstal":9854,"Ġstorm":9855,"strip":9856,"Ġsorely":9857,"Ġjacks":9858,"Ġwhites":9859,"Ġwhilst":9860,"Ġalive":9861,"Ġramp":9862,"Ġkits":9863,"Ġspam":9864,"Ġchut":9865,"Ġchoc":9866,"Ġdozens":9867,"amous":9868,"ilk":9869,"Ġviny":9870,"Ġroberto":9871,"Ġcopper":9872,"type":9873,"Ġfebruary":9874,"Ġprofess":9875,"Ġdram":9876,"Ġdrool":9877,"Ġenhan":9878,"Ġcris":9879,"hings":9880,"Ġsalv":9881,"Ġclaw":9882,"Ġbras":9883,"Ġbrass":9884,"Ġmug":9885,"Ġgrumpy":9886,"Ġtrunk":9887,"Ġblues":9888,"Ġsteering":9889,"Ġpayed":9890,"Ġspecialist":9891,"Ġbok":9892,"Ġchannels":9893,"prise":9894,"theless":9895,"Ġsecure":9896,"Ġrealizing":9897,"Ġtread":9898,"Ġtreating":9899,"Ġ2010":9900,"Ġstrat":9901,"Ġiceberg":9902,"ĠĠĠĠĠ":9903,"mbre":9904,"Ġpurses":9905,"Ġviewing":9906,"Ġpolished":9907,"Ġmeanwhile":9908,"Ġfixing":9909,"Ġsadd":9910,"Ġconfront":9911,"Ġtune":9912,"Ġlimo":9913,"Ġdarker":9914,"wwww":9915,"Ġfiled":9916,"Ġreplacing":9917,"Ġstudy":9918,"Ġcomplimented":9919,"Ġmulti":9920,"Ġhubs":9921,"Ġraise":9922,"Ġraising":9923,"Ġbrewing":9924,"Ġboarding":9925,"Ġprivile":9926,"Ġurge":9927,"Ġdevice":9928,"Ġdjs":9929,"Ġlabeled":9930,"Ġrotten":9931,"Ġmeantime":9932,"Ġventilation":9933,"Ġdemanded":9934,"Ġmildly":9935,"Ġoperation":9936,"Ġoperating":9937,"Ġarray":9938,"works":9939,"Ġinstructions":9940,"Ġmalt":9941,"Ġhamburgers":9942,"Ġtouches":9943,"Ġpints":9944,"Ġknives":9945,"Ġautomatic":9946,"Ġgrooming":9947,"Ġtherapy":9948,"rendip":9949,"Ġmarsala":9950,"Ġcastle":9951,"Ġlinguine":9952,"Ġbachelor":9953,"Ġshouting":9954,"Ġaddicted":9955,"Ġscarf":9956,"Ġindulge":9957,"========":9958,"Ġashley":9959,"Ġlentil":9960,"Ġslimy":9961,"Ġapplebee":9962,"Ġnovelty":9963,"Ġuninspired":9964,"Ġneglected":9965,"Ġrelationship":9966,"Ġapplication":9967,"Ġgyoza":9968,"Ġpolicies":9969,"cus":9970,"full":9971,"hoo":9972,"hum":9973,"ift":9974,"lava":9975,"mic":9976,"nar":9977,"nroom":9978,"tz":9979,"xy":9980,"zech":9981,"Ġtin":9982,"Ġwisconsin":9983,"Ġsac":9984,"Ġoj":9985,"inity":9986,"Ġbingo":9987,"Ġfails":9988,"Ġci":9989,"Ġpoo":9990,"Ġdub":9991,"Ġdug":9992,"oro":9993,"ench":9994,"Ġlined":9995,"otes":9996,"Ġthumb":9997,"Ġrely":9998,"stead":9999,"ntr":10000,"Ġserendip":10001,"Ġexquisite":10002,"tering":10003,"Ġsaut":10004,"Ġouting":10005,"Ġrant":10006,"Ġshipped":10007,"Ġloan":10008,"Ġupfront":10009,"Ġupbeat":10010,"Ġupsell":10011,"Ġvap":10012,"Ġcomfor":10013,"Ġbacks":10014,"Ġtools":10015,"Ġfez":10016,"Ġpreface":10017,"Ġflush":10018,"Ġafterward":10019,"ongrass":10020,"Ġcomparing":10021,"ilets":10022,"Ġbarry":10023,"Ġadam":10024,"Ġblamed":10025,"Ġbloss":10026,"aziness":10027,"xtures":10028,"Ġscal":10029,"perfect":10030,"Ġ500":10031,"Ġaward":10032,"Ġcasa":10033,"Ġfinest":10034,"Ġextras":10035,"Ġglowing":10036,"mmed":10037,"Ġshaped":10038,"Ġwaterfall":10039,"nwal":10040,"ignment":10041,"Ġredo":10042,"Ġfills":10043,"Ġexcuses":10044,"Ġshopped":10045,"Ġprimary":10046,"ocolate":10047,"Ġstreng":10048,"ango":10049,"Ġcurly":10050,"Ġsignal":10051,"Ġsaturdays":10052,"Ġfixe":10053,"Ġdiscl":10054,"Ġsounding":10055,"Ġconcent":10056,"Ġconcrete":10057,"Ġspoons":10058,"Ġoriental":10059,"Ġcommand":10060,"Ġsplitting":10061,"Ġwowed":10062,"Ġfiling":10063,"Ġavoiding":10064,"Ġaffect":10065,"Ġbabies":10066,"Ġpeter":10067,"Ġbonne":10068,"Ġtraveled":10069,"Ġignoring":10070,"Ġcapri":10071,"Ġkicker":10072,"Ġnacho":10073,"ussels":10074,"Ġmemorab":10075,"Ġcompetitors":10076,"Ġcircum":10077,"Ġhipp":10078,"Ġregisters":10079,"until":10080,"Ġexpressed":10081,"Ġmaterial":10082,"Ġtests":10083,"Ġbasement":10084,"Ġdigging":10085,"Ġvehicles":10086,"neveryone":10087,"Ġarranged":10088,"Ġsnooty":10089,"drinks":10090,"Ġjohnny":10091,"Ġdragged":10092,"Ġbulgogi":10093,"Ġembarrassing":10094,"Ġvouchers":10095,"Ġsuccessful":10096,"markable":10097,"Ġthousand":10098,"Ġborderline":10099,"Ġelectronics":10100,"Ġrecognize":10101,"Ġteacher":10102,"Ġrustic":10103,"Ġprotect":10104,"Ġassemb":10105,"delicious":10106,"Ġaccompanying":10107,"Ġexhausted":10108,"Ġindependent":10109,"Ġfinancial":10110,"Ġtaquitos":10111,"Ġdynam":10112,"Ġpricier":10113,"Ġpyram":10114,"Ġguitar":10115,"Ġindifferent":10116,"Ġlattes":10117,"Ġconnoisseur":10118,"Ġserendipity":10119,"Ġblossom":10120,"34":10121,"600":10122,"77":10123,"aign":10124,"could":10125,"gl":10126,"hs":10127,"iw":10128,"nie":10129,"nabout":10130,"rav":10131,"sur":10132,"sushi":10133,"wide":10134,"za":10135,"Ġtz":10136,"Ġtid":10137,"Ġtso":10138,"Ġike":10139,"Ġtheory":10140,"Ġcops":10141,"Ġmos":10142,"asm":10143,"asmine":10144,"Ġps":10145,"Ġpoop":10146,"Ġtoilets":10147,"eday":10148,"Ġding":10149,"Ġgast":10150,"Ġgag":10151,"Ġgap":10152,"enne":10153,"Ġlb":10154,"Ġlid":10155,"Ġlbs":10156,"Ġlord":10157,"Ġnik":10158,"iser":10159,"Ġhay":10160,"least":10161,"Ġinappropri":10162,"Ġthy":10163,"Ġree":10164,"Ġyol":10165,"Ġheater":10166,"struct":10167,"stream":10168,"Ġatop":10169,"Ġmeets":10170,"Ġmerely":10171,"omegran":10172,"abor":10173,"Ġserr":10174,"Ġfrag":10175,"thora":10176,"Ġserviced":10177,"Ġvoc":10178,"uli":10179,"Ġcheers":10180,"Ġcausing":10181,"Ġcanada":10182,"arts":10183,"Ġexposed":10184,"Ġdisag":10185,"Ġdisgr":10186,"Ġleaking":10187,"avoid":10188,"nthese":10189,"Ġenfor":10190,"Ġbyob":10191,"Ġmanuf":10192,"oles":10193,"Ġtran":10194,"Ġ300":10195,"Ġbliss":10196,"Ġslush":10197,"Ġscoops":10198,"ggie":10199,"Ġcarried":10200,"Ġactivity":10201,"Ġawards":10202,"Ġfinds":10203,"Ġacqu":10204,"nsad":10205,"Ġmario":10206,"Ġshack":10207,"Ġharris":10208,"Ġoptim":10209,"Ġfarmer":10210,"definitely":10211,"Ġdishonest":10212,"Ġrunner":10213,"Ġremains":10214,"Ġbeloved":10215,"Ġstrings":10216,"Ġlaser":10217,"Ġstylists":10218,"ncon":10219,"ncome":10220,"Ġcrabs":10221,"Ġlowest":10222,"Ġbehold":10223,"browns":10224,"Ġsinger":10225,"Ġspoken":10226,"Ġtorte":10227,"Ġaccompl":10228,"Ġairports":10229,"Ġfaith":10230,"Ġelements":10231,"Ġposters":10232,"Ġcommit":10233,"claim":10234,"Ġsource":10235,"Ġmelts":10236,"pective":10237,"Ġmadness":10238,"Ġbride":10239,"Ġbrilliant":10240,"Ġmarketing":10241,"Ġhyped":10242,"Ġtransl":10243,"Ġscenery":10244,"Ġperformed":10245,"Ġcompete":10246,"Ġboards":10247,"serve":10248,"Ġfeeding":10249,"Ġpuppy":10250,"Ġtavern":10251,"Ġnathan":10252,"Ġdigress":10253,"Ġfocac":10254,"Ġgallon":10255,"Ġoperated":10256,"Ġtanning":10257,"Ġgerm":10258,"Ġcomputers":10259,"Ġsucculent":10260,"rolls":10261,"Ġassociated":10262,"Ġlaws":10263,"Ġindoors":10264,"Ġresponsible":10265,"Ġpitchers":10266,"Ġdistracting":10267,"regular":10268,"Ġplethora":10269,"Ġaroma":10270,"Ġcarniv":10271,"Ġcarnival":10272,"Ġstrictly":10273,"Ġoccurred":10274,"Ġlemongrass":10275,"Ġvalentine":10276,"grilled":10277,"Ġcompelled":10278,"Ġcalorie":10279,"Ġnewspaper":10280,"Ġvirgin":10281,"Ġintrigued":10282,"Ġbullshit":10283,"Ġsommelier":10284,"Ġmanhattan":10285,"Ġcactus":10286,"Ġepisode":10287,"Ġmemorabilia":10288,"Ġpyramid":10289,"Ġmanufact":10290,");":10291,".).":10292,"cont":10293,"cco":10294,"dings":10295,"eu":10296,"fire":10297,"gun":10298,"opped":10299,"take":10300,"vo":10301,"win":10302,"wed":10303,"word":10304,"zing":10305,"Ġtus":10306,"Ġtuc":10307,"Ġsrir":10308,"Ġfred":10309,"Ġmmmm":10310,"asing":10311,"Ġdiced":10312,"ener":10313,"llig":10314,"Ġlisa":10315,"Ġnord":10316,"Ġhakk":10317,"Ġwei":10318,"oos":10319,"Ġyr":10320,"idently":10321,"ionally":10322,"rozen":10323,"irls":10324,"Ġplated":10325,"Ġuber":10326,"Ġsolo":10327,"ntoo":10328,"Ġjes":10329,"asts":10330,"aba":10331,"Ġtiff":10332,"Ġtipping":10333,"Ġ(\\\"":10334,"Ġframes":10335,"Ġchil":10336,"Ġsufficient":10337,"Ġfrills":10338,"Ġwandered":10339,"Ġrocked":10340,"Ġexpans":10341,"osis":10342,"Ġami":10343,"Ġquad":10344,"Ġarrow":10345,"Ġarguing":10346,"imb":10347,"apia":10348,"Ġbrakes":10349,"Ġbrussels":10350,"Ġbund":10351,"umm":10352,"Ġunits":10353,"Ġnevertheless":10354,"Ġburro":10355,"Ġdire":10356,"Ġscor":10357,"Ġscant":10358,"Ġlotion":10359,"Ġpriceline":10360,"Ġdefinition":10361,"Ġawes":10362,"Ġtimeshare":10363,"Ġbiggie":10364,"Ġdeliciously":10365,"Ġworthwhile":10366,"edia":10367,"Ġsweating":10368,"Ġtastebuds":10369,"Ġhanding":10370,"Ġterry":10371,"Ġrecy":10372,"Ġlax":10373,"Ġcounted":10374,"Ġcoolest":10375,"Ġshrimps":10376,"nbas":10377,"Ġsmokers":10378,"Ġguessed":10379,"Ġstruck":10380,"Ġairways":10381,"ences":10382,"Ġzo":10383,"nthree":10384,"Ġtomat":10385,"Ġ800":10386,"Ġobject":10387,"Ġbuttercream":10388,"Ġconfident":10389,"Ġtreatments":10390,"Ġoriented":10391,"whatever":10392,"Ġcabs":10393,"Ġthinner":10394,"Ġdamaged":10395,"Ġtrainers":10396,"Ġtextures":10397,"nlots":10398,"Ġnegatives":10399,"Ġdanced":10400,"Ġbeatles":10401,"nhot":10402,"nhonestly":10403,"Ġformal":10404,"Ġfolk":10405,"Ġdenied":10406,"Ġbaklava":10407,"Ġattempts":10408,"aaa":10409,"aaay":10410,"Ġpuzz":10411,"Ġmatched":10412,"Ġrotating":10413,"Ġfights":10414,"Ġutil":10415,"Ġdente":10416,"Ġremoving":10417,"Ġsurroundings":10418,"alaya":10419,"Ġunlv":10420,"Ġleading":10421,"Ġdrafts":10422,"Ġalternatives":10423,"Ġranging":10424,"rrrr":10425,"Ġcrawl":10426,"Ġfarmers":10427,"Ġscare":10428,"Ġirritating":10429,"Ġgummy":10430,"Ġteenagers":10431,"Ġoverpowered":10432,"Ġsomeday":10433,"Ġarcadia":10434,"Ġpassionate":10435,"bags":10436,"interesting":10437,"Ġrecognized":10438,"Ġtoddler":10439,"Ġcrammed":10440,"Ġrelief":10441,"Ġdissapointed":10442,"Ġwolfgang":10443,"nambiance":10444,"nperhaps":10445,"Ġnurses":10446,"iveness":10447,"Ġbrooklyn":10448,"Ġwalgreens":10449,"Ġsophist":10450,"Ġhottest":10451,"Ġstratosphere":10452,"Ġstrength":10453,"Ġhakkas":10454,"31":10455,"59":10456,"bre":10457,"bid":10458,"bles":10459,"cakes":10460,"iate":10461,"kets":10462,"nwhere":10463,"overs":10464,"pick":10465,"paper":10466,"rain":10467,"sat":10468,"sigh":10469,"ukee":10470,"would":10471,"hello":10472,"Ġwishing":10473,"Ġsessions":10474,"rene":10475,"Ġbound":10476,"Ġbouch":10477,"Ġfaint":10478,"Ġfasc":10479,"Ġpak":10480,"Ġlone":10481,"Ġni":10482,"vegan":10483,"Ġthro":10484,"aco":10485,"Ġyrs":10486,"Ġhush":10487,"rio":10488,"urb":10489,"stals":10490,"enter":10491,"roy":10492,"irable":10493,"Ġatroc":10494,"Ġmega":10495,"Ġplug":10496,"Ġanth":10497,"Ġjumbo":10498,"elcome":10499,"ching":10500,"Ġritz":10501,"Ġgosh":10502,"Ġfran":10503,"Ġfritt":10504,"Ġshuff":10505,"geon":10506,"Ġsund":10507,"Ġsums":10508,"Ġabrupt":10509,"iland":10510,"Ġvague":10511,"Ġcoma":10512,"Ġrope":10513,"Ġrode":10514,"Ġovercrowded":10515,"Ġquir":10516,"Ġflay":10517,"Ġflakes":10518,"Ġproved":10519,"Ġrestrict":10520,"\\\"?":10521,"Ġdrunks":10522,"Ġcrushed":10523,"Ġthanked":10524,"Ġbrake":10525,"Ġgritty":10526,"agement":10527,"assuming":10528,"Ġchap":10529,".........":10530,"Ġlongest":10531,"Ġvisually":10532,"Ġactors":10533,"Ġawa":10534,"ensions":10535,"Ġexceeded":10536,"Ġsweeter":10537,"issa":10538,"ancing":10539,"Ġcord":10540,"nwa":10541,"Ġdishwas":10542,"Ġhorror":10543,"Ġtalks":10544,"Ġweeknight":10545,"Ġcuticles":10546,"nback":10547,"Ġindicated":10548,"enches":10549,"Ġcosting":10550,"Ġhosts":10551,"Ġwarmly":10552,"Ġbelieved":10553,"Ġdrops":10554,"Ġconsideration":10555,"Ġfroyo":10556,"cheap":10557,"Ġappointed":10558,"Ġintri":10559,"shop":10560,"Ġblueberries":10561,"Ġforgetting":10562,"Ġbik":10563,"Ġdescriptions":10564,"Ġhearts":10565,"Ġcondo":10566,"Ġspeaks":10567,"Ġmeetings":10568,"Ġresorts":10569,"Ġbrian":10570,"Ġqueue":10571,"Ġbald":10572,"Ġaccommodated":10573,"Ġrubbed":10574,"Ġquestionable":10575,"Ġpedest":10576,"Ġscenes":10577,"Ġperforming":10578,"Ġcanceled":10579,"Ġsanit":10580,"Ġshellac":10581,"Ġdreams":10582,"Ġexplos":10583,"Ġmotiv":10584,"Ġlanded":10585,"Ġplatters":10586,"without":10587,"Ġawkwardly":10588,"Ġdrawback":10589,"Ġfeaturing":10590,"Ġnause":10591,"worthy":10592,"moon":10593,"Ġobserved":10594,"Ġberries":10595,"Ġflex":10596,"Ġgroomer":10597,"Ġgrapes":10598,"Ġchallenging":10599,"Ġinvestig":10600,"casino":10601,"Ġphysical":10602,"Ġdetermine":10603,"Ġanticipated":10604,"Ġunremarkable":10605,"Ġsevere":10606,"Ġeducated":10607,"Ġoutfits":10608,"everything":10609,"Ġdisturbing":10610,"Ġnuggets":10611,"Ġceasar":10612,"Ġfarther":10613,"ounced":10614,"Ġvomit":10615,"Ġinjury":10616,"extra":10617,"Ġsouffle":10618,"Ġsnotty":10619,"Ġabundance":10620,"Ġmisters":10621,"Ġfogo":10622,"Ġosso":10623,"Ġgristle":10624,"Ġafrican":10625,"Ġcaribbean":10626,"Ġcircumst":10627,"Ġserrano":10628,"Ġsriracha":10629,"Ġhakkasan":10630,"$$":10631,"bes":10632,"bri":10633,"burn":10634,"bird":10635,"case":10636,"door":10637,"fries":10638,"hrs":10639,"http":10640,"ko":10641,"kind":10642,"low":10643,"mit":10644,"milk":10645,"name":10646,"post":10647,"rate":10648,"tre":10649,"tal":10650,"tion":10651,"Ġll":10652,"Ġtres":10653,"Ġsind":10654,"Ġsard":10655,"Ġsque":10656,"Ġszech":10657,"Ġosc":10658,"Ġbould":10659,"Ġbord":10660,"Ġbattle":10661,"Ġbenches":10662,"Ġmut":10663,"Ġmoo":10664,"Ġmath":10665,"Ġpou":10666,"Ġpans":10667,"Ġpomegran":10668,"Ġtoffee":10669,"Ġgoose":10670,"oran":10671,"llll":10672,"Ġlava":10673,"Ġnin":10674,"Ġnan":10675,"oma":10676,"oming":10677,"Ġhaban":10678,"ussed":10679,"Ġbend":10680,"Ġbeign":10681,"Ġthier":10682,"alog":10683,"Ġstair":10684,"rive":10685,"Ġhel":10686,"Ġheap":10687,"Ġatleast":10688,"Ġsau":10689,"Ġkare":10690,"Ġshore":10691,"Ġlox":10692,"ainted":10693,"ilarly":10694,"Ġvote":10695,"Ġchee":10696,"ateur":10697,"ieved":10698,"Ġnoises":10699,"Ġdemean":10700,"aville":10701,"!!)":10702,"Ġflowing":10703,"Ġmode":10704,"Ġ120":10705,"Ġclut":10706,"Ġbrav":10707,"Ġgru":10708,"mentioned":10709,"Ġtwin":10710,"Ġunited":10711,"Ġads":10712,"Ġblocked":10713,"Ġslack":10714,"Ġslider":10715,"Ġslipped":10716,"aret":10717,"beer":10718,"bearing":10719,"Ġstere":10720,"Ġperks":10721,"Ġcarving":10722,"oche":10723,"asonable":10724,"Ġactive":10725,"tingu":10726,"Ġcashew":10727,"Ġwherever":10728,"Ġfresher":10729,"Ġunderground":10730,"nell":10731,"Ġdrip":10732,"Ġportobe":10733,"Ġstandout":10734,"ifying":10735,"Ġbelgian":10736,"Ġpawn":10737,"Ġsurprises":10738,"awesome":10739,"Ġassigned":10740,"Ġpacks":10741,"ncustomer":10742,"nthird":10743,"safe":10744,"grade":10745,"loaded":10746,"Ġpopping":10747,"Ġswall":10748,"Ġhonesty":10749,"Ġconfit":10750,"Ġavailability":10751,"Ġridge":10752,"Ġpainless":10753,"Ġsnag":10754,"Ġtunes":10755,"Ġexperiencing":10756,"Ġthankful":10757,"Ġscotch":10758,"Ġmalls":10759,"Ġannoyance":10760,"closed":10761,"Ġprofessionals":10762,"oooooo":10763,"Ġmelting":10764,"Ġauthenticity":10765,"Ġneighboring":10766,"Ġsunrise":10767,"Ġsonic":10768,"Ġpubs":10769,"Ġcolorado":10770,"Ġstronger":10771,"Ġsleek":10772,"Ġimagination":10773,"Ġcapers":10774,"Ġruins":10775,"Ġlatin":10776,"Ġcaters":10777,"rugged":10778,"Ġromaine":10779,"Ġdaddy":10780,"......\\":10781,"Ġmandarin":10782,"Ġrotate":10783,"Ġtruffles":10784,"Ġilleg":10785,"Ġjerky":10786,"warma":10787,"Ġdecisions":10788,"Ġcigars":10789,"Ġbrothers":10790,"Ġdispos":10791,"Ġfurious":10792,"Ġcrystals":10793,"Ġrangoon":10794,"nrecommend":10795,"Ġcritical":10796,"Ġfixtures":10797,"Ġpockets":10798,"Ġsweaty":10799,"Ġencouraged":10800,"Ġenthusiasm":10801,"Ġprincess":10802,"Ġinteractive":10803,"Ġtransferred":10804,"Ġroulette":10805,"Ġdesperately":10806,"Ġkabobs":10807,"Ġunhelpful":10808,"Ġplantains":10809,"stickers":10810,"Ġbritish":10811,"Ġnugget":10812,"Ġeyel":10813,"Ġpupus":10814,"Ġremarkable":10815,"Ġsociety":10816,"Ġantipasto":10817,"Ġdisrespectful":10818,"Ġcomponents":10819,"Ġescargot":10820,"Ġikea":10821,"Ġtucson":10822,")..":10823,"85":10824,"baked":10825,"fat":10826,"gus":10827,"nout":10828,"pool":10829,"pical":10830,"rist":10831,"Ġ!!!!":10832,"Ġted":10833,"Ġiv":10834,"Ġsinks":10835,"Ġcass":10836,"Ġmats":10837,"hable":10838,"ases":10839,"Ġpha":10840,"Ġping":10841,"Ġandy":10842,"Ġdrew":10843,"Ġdvd":10844,"Ġdoused":10845,"Ġgau":10846,"Ġlion":10847,"Ġlitt":10848,"Ġlave":10849,"Ġnite":10850,"Ġnye":10851,"Ġhaze":10852,"aro":10853,"Ġreim":10854,"Ġrefin":10855,"Ġstinks":10856,"urst":10857,"step":10858,"Ġumm":10859,"Ġumbre":10860,"Ġlies":10861,"Ġsears":10862,"Ġsapp":10863,"Ġaltogether":10864,"Ġoutta":10865,"Ġrue":10866,"Ġrowd":10867,"sequ":10868,"Ġgetaway":10869,"Ġshrugged":10870,"Ġchipped":10871,"Ġloin":10872,"Ġva":10873,"Ġwaist":10874,"Ġcaution":10875,"Ġnobu":10876,"Ġdisli":10877,"Ġdistingu":10878,"Ġleur":10879,"Ġlegend":10880,"Ġovers":10881,"Ġquel":10882,"Ġdonate":10883,"agon":10884,"Ġresto":10885,"Ġmochi":10886,"Ġpei":10887,"Ġfriendlier":10888,"Ġmanners":10889,"Ġsalami":10890,"Ġbrun":10891,"umer":10892,"Ġunatt":10893,"Ġuncooked":10894,"Ġbarbe":10895,"Ġbarber":10896,"Ġslap":10897,"Ġpartially":10898,"actually":10899,"Ġscamp":10900,"finished":10901,"Ġcarl":10902,"fere":10903,"Ġvisual":10904,"Ġentre":10905,"Ġresc":10906,"Ġglue":10907,"Ġamaze":10908,"nsu":10909,"nsushi":10910,"Ġthoughtful":10911,"Ġpattern":10912,"Ġconserv":10913,"Ġcontest":10914,"Ġcontribut":10915,"Ġcounters":10916,"ifi":10917,"Ġimpressions":10918,"Ġshoppers":10919,"Ġlists":10920,"Ġdecoration":10921,"Ġpackets":10922,"Ġreads":10923,"Ġcurb":10924,"Ġplanes":10925,"Ġseasonings":10926,"tiest":10927,"Ġconsiderably":10928,"Ġtoaster":10929,"Ġposting":10930,"Ġforest":10931,"Ġforewar":10932,"Ġrelaxation":10933,"Ġdamned":10934,"Ġbaba":10935,"phones":10936,"Ġgrossed":10937,"Ġsaucy":10938,"Ġmarketplace":10939,"Ġimagined":10940,"Ġcapable":10941,"Ġenvy":10942,"Ġsisters":10943,"flav":10944,"flavor":10945,"Ġhashbrowns":10946,"Ġbenny":10947,"Ġtrusted":10948,"Ġdoughnuts":10949,"Ġrefresh":10950,"Ġhiding":10951,"Ġtaro":10952,"Ġmarkets":10953,"Ġ2008":10954,"Ġessential":10955,"Ġcompanions":10956,"Ġfajita":10957,"Ġcandied":10958,"Ġcultural":10959,"Ġabsor":10960,"Ġeffects":10961,"Ġintroduce":10962,"rusive":10963,"Ġartistic":10964,"tasting":10965,"Ġleaning":10966,"Ġofficial":10967,"Ġofficially":10968,"eatre":10969,"Ġpeeve":10970,"ipps":10971,"Ġunhealthy":10972,"Ġspicier":10973,"Ġdrizzle":10974,"Ġcaliber":10975,"Ġadmittedly":10976,"Ġincorrectly":10977,"local":10978,"Ġvibrant":10979,"Ġcompensation":10980,"Ġacrobatics":10981,"Ġurgent":10982,"Ġtostada":10983,"Ġhustle":10984,"Ġdeluxe":10985,"Ġresturant":10986,"Ġstrangers":10987,"Ġoverflowing":10988,"Ġpermanent":10989,"nhighly":10990,"Ġhelicopter":10991,"Ġfettuccine":10992,"Ġinappropriate":10993,"Ġfocaccia":10994,"Ġintriguing":10995,"%.":10996,"120":10997,"craft":10998,"fit":10999,"father":11000,"iving":11001,"jas":11002,"lot":11003,"past":11004,"ruit":11005,"sure":11006,"same":11007,"spe":11008,"uous":11009,"wat":11010,"wan":11011,"Ġafore":11012,"heat":11013,"Ġwer":11014,"Ġwenn":11015,"Ġther":11016,"Ġsni":11017,"Ġsizz":11018,"reen":11019,"Ġbj":11020,"Ġcad":11021,"Ġmig":11022,"Ġmgr":11023,"Ġmau":11024,"Ġdot":11025,"Ġlite":11026,"Ġlass":11027,"Ġnit":11028,"Ġnfl":11029,"Ġhates":11030,"Ġford":11031,"alcohol":11032,"Ġhd":11033,"Ġstumble":11034,"alling":11035,"Ġnoticing":11036,"adays":11037,"roasted":11038,"Ġatl":11039,"Ġorth":11040,"Ġorang":11041,"Ġorgas":11042,"nthings":11043,"Ġjasmine":11044,"anter":11045,"Ġouter":11046,"Ġkong":11047,"Ġchomp":11048,"quer":11049,"Ġjustice":11050,"thought":11051,"through":11052,"Ġvra":11053,"Ġcomic":11054,"Ġcompt":11055,"resort":11056,"Ġcheat":11057,"Ġcoated":11058,"sole":11059,"Ġoverbearing":11060,"Ġquand":11061,"Ġquiz":11062,"\\\"!":11063,"Ġpep":11064,"Ġdrowned":11065,"Ġfriendliest":11066,"Ġcrash":11067,"Ġ26":11068,"apolog":11069,"Ġbru":11070,"olo":11071,"Ġsmashed":11072,"Ġapplied":11073,"Ġguards":11074,"Ġtrout":11075,"Ġtrav":11076,"Ġloco":11077,"Ġchaotic":11078,"Ġpartial":11079,"Ġsteady":11080,"ggin":11081,"Ġshowroom":11082,"Ġ55":11083,"Ġnowadays":11084,"Ġintox":11085,"Ġvisitor":11086,"Ġresidents":11087,"Ġcreations":11088,"nold":11089,"nsomet":11090,"Ġmarvel":11091,"Ġoldest":11092,"Ġbaskets":11093,"Ġpersons":11094,"Ġhandic":11095,"Ġhandmade":11096,"Ġconsuming":11097,"Ġmuscles":11098,"note":11099,"uces":11100,"Ġhopping":11101,"month":11102,"Ġfoil":11103,"nbad":11104,"aware":11105,"Ġstringy":11106,"Ġstream":11107,"Ġclassics":11108,"burgers":11109,"Ġlouder":11110,"Ġestim":11111,"Ġdisconn":11112,"Ġportioned":11113,"Ġdepth":11114,"Ġmai":11115,"chef":11116,"Ġartific":11117,"Ġrequesting":11118,"Ġsaltiness":11119,"Ġboxed":11120,"Ġlube":11121,"Ġsatisfactory":11122,"retentious":11123,"Ġmelon":11124,"Ġhella":11125,"kyo":11126,"Ġbleeding":11127,"Ġsimilarly":11128,"Ġslee":11129,"Ġdancer":11130,"minutes":11131,"Ġodds":11132,"Ġidk":11133,"Ġmagically":11134,"maid":11135,"Ġwestgate":11136,"Ġwoods":11137,"Ġcancell":11138,"Ġravi":11139,"Ġdimly":11140,"Ġroma":11141,"Ġlabel":11142,"nhappy":11143,"Ġchampaign":11144,"Ġmandatory":11145,"Ġ2009":11146,"Ġunsure":11147,"Ġblocking":11148,"Ġmacaroons":11149,"Ġsnobby":11150,"Ġfuzzy":11151,"Ġresulted":11152,"Ġeinstein":11153,"Ġalex":11154,"Ġinconveni":11155,"Ġoreo":11156,"Ġsuffer":11157,"Ġsubstitutions":11158,"Ġquarters":11159,"Ġshark":11160,"Ġshocking":11161,"Ġqualit":11162,"Ġdiscussion":11163,"Ġcomplemented":11164,"Ġwashington":11165,"Ġunfair":11166,"Ġcameras":11167,"Ġdesigns":11168,"nlastly":11169,"Ġkabob":11170,"Ġbubbles":11171,"Ġinventory":11172,"Ġcheerful":11173,"Ġganache":11174,"Ġemeril":11175,"Ġpassengers":11176,"Ġjambalaya":11177,"Ġbridal":11178,"Ġliberty":11179,"Ġvolunte":11180,"Ġkiosk":11181,"Ġzombie":11182,"Ġacoustics":11183,"Ġinnovative":11184,"Ġvinyl":11185,"ravag":11186,"Ġtiffany":11187,"Ġbouchon":11188,"Ġdishwasher":11189,"Ġhabanero":11190,"Ġscampi":11191,"69":11192,"?)\\":11193,"bster":11194,"course":11195,"girl":11196,"mans":11197,"sons":11198,"uge":11199,"vies":11200,"wich":11201,"Ġtaught":11202,"Ġwre":11203,"Ġthee":11204,"Ġsel":11205,"Ġot":11206,"inent":11207,"Ġfence":11208,"Ġfiest":11209,"Ġcine":11210,"Ġcork":11211,"Ġcured":11212,"Ġmam":11213,"Ġmaki":11214,"asco":11215,"Ġpc":11216,"Ġpall":11217,"eds":11218,"Ġdall":11219,"Ġgab":11220,"Ġgabi":11221,"esh":11222,"Ġlag":11223,"Ġlens":11224,"Ġnast":11225,"Ġnons":11226,"atoni":11227,"anity":11228,"Ġhabe":11229,"arms":11230,"lean":11231,"Ġrend":11232,"Ġyak":11233,"Ġhong":11234,"etta":11235,"Ġsting":11236,"Ġstressed":11237,"Ġplush":11238,"Ġjess":11239,"Ġseph":11240,"Ġratt":11241,"Ġruss":11242,"Ġsuited":11243,"Ġupcoming":11244,"eston":11245,"estyle":11246,"resp":11247,"Ġchel":11248,"atement":11249,"Ġross":11250,"arted":11251,"Ġcoord":11252,"Ġtool":11253,"Ġleis":11254,"Ġleague":11255,"Ġpron":11256,"Ġpraise":11257,"cause":11258,"ctions":11259,"Ġdonc":11260,"ookie":11261,"Ġpeut":11262,"Ġpeoria":11263,"Ġcler":11264,"Ġrim":11265,"Ġdecline":11266,"Ġunassuming":11267,"Ġlocate":11268,"acho":11269,"Ġpartly":11270,"Ġcarbs":11271,"Ġcustomize":11272,"Ġsincere":11273,"Ġspecially":11274,"Ġkebab":11275,"Ġextravag":11276,"Ġparks":11277,"Ġimperson":11278,"Ġpotentially":11279,"Ġpotstickers":11280,"Ġtopless":11281,"Ġteller":11282,"nwor":11283,"nwow":11284,"Ġsites":11285,"Ġcareless":11286,"Ġslowest":11287,"Ġbilled":11288,"bye":11289,"Ġmisses":11290,"white":11291,"Ġzip":11292,"Ġhaircuts":11293,"Ġinfection":11294,"Ġsword":11295,"Ġmacay":11296,"Ġimage":11297,"ception":11298,"Ġfiguring":11299,"Ġspoil":11300,"Ġranged":11301,"ernet":11302,"Ġintend":11303,"Ġvalu":11304,"Ġschnit":11305,"Ġamericans":11306,"Ġdistribut":11307,"naside":11308,"Ġtexting":11309,"Ġchildhood":11310,"Ġmasse":11311,"Ġlayered":11312,"Ġcondiment":11313,"Ġspeaker":11314,"forget":11315,"minus":11316,"Ġpads":11317,"Ġverdict":11318,"Ġgenerously":11319,"Ġchilli":11320,"Ġchilly":11321,"Ġhipsters":11322,"Ġscheduling":11323,"Ġceleb":11324,"Ġmills":11325,"Ġnapa":11326,"Ġbene":11327,"server":11328,"Ġjackpot":11329,"Ġchatted":11330,"Ġgardens":11331,"arran":11332,"Ġrespectable":11333,"Ġpumped":11334,"Ġthursdays":11335,"stere":11336,"nbeing":11337,"Ġtrashy":11338,"Ġunlikely":11339,"Ġwaxed":11340,"Ġpurposes":11341,"Ġpaintings":11342,"Ġvolcano":11343,"Ġtanks":11344,"Ġ;-":11345,"Ġbreasts":11346,"Ġcrossed":11347,"Ġmountains":11348,"Ġranges":11349,"Ġgalore":11350,"Ġdomino":11351,"Ġsprinkle":11352,"Ġchopsticks":11353,"Ġloading":11354,"Ġdissatisfied":11355,"Ġbustling":11356,"Ġappropriately":11357,"Ġeffective":11358,"Ġcitizen":11359,"Ġprescriptions":11360,"Ġtilapia":11361,"Ġrachel":11362,"Ġmechanical":11363,"formed":11364,"Ġinquire":11365,"Ġdetermined":11366,"Ġaspects":11367,"Ġinflated":11368,"Ġidentity":11369,"Ġperspective":11370,"Ġbrownies":11371,"Ġscottish":11372,"Ġmobile":11373,"Ġtechnically":11374,"Ġcaptain":11375,"Ġrudeness":11376,"Ġaddictive":11377,"Ġdunno":11378,"Ġlucille":11379,"Ġstalls":11380,"nenjoy":11381,"Ġconsumed":11382,"Ġurgency":11383,"Ġdiablo":11384,"Ġaustin":11385,"Ġtitle":11386,"school":11387,"Ġaesthet":11388,"Ġlandsca":11389,"Ġjalep":11390,"Ġsucceed":11391,"Ġerrands":11392,"large":11393,"Ġsopap":11394,"Ġmisleading":11395,"nfriendly":11396,"Ġhoagie":11397,"Ġsunglasses":11398,"Ġcomforter":11399,"Ġdisagree":11400,"Ġsophisticated":11401,"Ġanthony":11402,"Ġquirky":11403,"Ġoscar":11404,"Ġbarbeque":11405,"Ġaforementioned":11406,"Ġartificial":11407,"Ġsephora":11408,"!.":11409,"110":11410,"48":11411,"68":11412,"average":11413,"bro":11414,"bone":11415,"cash":11416,"dou":11417,"hlet":11418,"ige":11419,"lie":11420,"must":11421,"vest":11422,"wy":11423,"yan":11424,"yay":11425,"Ġaaa":11426,"Ġwins":11427,"reet":11428,"inating":11429,"Ġbaking":11430,"Ġbison":11431,"Ġbww":11432,"erget":11433,"nduring":11434,"Ġfax":11435,"Ġcp":11436,"Ġcough":11437,"asso":11438,"ashes":11439,"Ġdal":11440,"orous":11441,"Ġlinks":11442,"italian":11443,"Ġner":11444,"aten":11445,"atures":11446,"isan":11447,"otics":11448,"Ġeb":11449,"Ġink":11450,"Ġbea":11451,"Ġont":11452,"Ġyama":11453,"Ġforgive":11454,"Ġstor":11455,"rif":11456,"Ġsoothing":11457,"illion":11458,"abatta":11459,"Ġsaff":11460,"Ġrus":11461,"Ġket":11462,"Ġkiss":11463,"Ġgoss":11464,"Ġfritters":11465,"Ġshine":11466,"Ġshining":11467,"Ġalle":11468,"quite":11469,"Ġusa":11470,"amo":11471,"ilian":11472,"ief":11473,"Ġdeaf":11474,"inds":11475,"Ġdismiss":11476,"Ġquint":11477,"ctic":11478,"Ġpropri":11479,"Ġpeel":11480,"Ġdrugs":11481,"Ġenerget":11482,"Ġmaneu":11483,"Ġ29":11484,"Ġvets":11485,"weight":11486,"Ġbrut":11487,"Ġbucco":11488,"Ġtryst":11489,"Ġwhoa":11490,"Ġsmog":11491,"Ġhotter":11492,"Ġgrave":11493,"Ġunbe":11494,"Ġunfinished":11495,"Ġunapolog":11496,"Ġtricky":11497,"udd":11498,"Ġdelmon":11499,"Ġadob":11500,"Ġslur":11501,"Ġtrial":11502,"ubs":11503,"raut":11504,"Ġextensions":11505,"Ġelite":11506,"Ġcleanest":11507,"Ġglob":11508,"Ġmari":11509,"Ġmarble":11510,"Ġmaria":11511,"uckily":11512,"Ġbogo":11513,"Ġchang":11514,"prising":11515,"Ġpersonnel":11516,"Ġjoes":11517,"mostly":11518,"Ġfarms":11519,"Ġrecre":11520,"Ġreps":11521,"Ġreplic":11522,"Ġcounts":11523,"mony":11524,"Ġmusical":11525,"nbtw":11526,"Ġsmoker":11527,"Ġprim":11528,"Ġbuys":11529,"remember":11530,"ccer":11531,"Ġdressings":11532,"Ġaccustom":11533,"Ġpromising":11534,"Ġbbb":11535,"Ġjuan":11536,"Ġspell":11537,"Ġpobl":11538,"brunch":11539,"Ġimmense":11540,"Ġcontinually":11541,"Ġsplash":11542,"Ġbiker":11543,"Ġbiased":11544,"Ġlayover":11545,"lands":11546,"Ġhumble":11547,"Ġsentence":11548,"Ġasians":11549,"Ġcombine":11550,"Ġmedication":11551,"holes":11552,"Ġbrides":11553,"Ġbrioche":11554,"Ġcovering":11555,"Ġcharlie":11556,"Ġbeaten":11557,"Ġupdates":11558,"Ġquieter":11559,"Ġchewing":11560,"Ġfabric":11561,"Ġmemorial":11562,"Ġtonk":11563,"Ġmiller":11564,"Ġcontains":11565,"Ġsavor":11566,"Ġrobbed":11567,"Ġlandmark":11568,"Ġproceeds":11569,"Ġrotisserie":11570,"Ġgems":11571,"Ġtravelers":11572,"Ġimprovements":11573,"Ġpairing":11574,"Ġunsatisfied":11575,"Ġringing":11576,"Ġcrafted":11577,"Ġevil":11578,"world":11579,"Ġironically":11580,"Ġunpretentious":11581,"Ġcrawling":11582,"Ġknocking":11583,"Ġautomated":11584,"salad":11585,"Ġvending":11586,"Ġvendor":11587,"better":11588,"Ġbatali":11589,"Ġgrapef":11590,"Ġbuttons":11591,"Ġremainder":11592,"Ġteenage":11593,"Ġbreathtaking":11594,"Ġflavours":11595,"Ġcomplementary":11596,"Ġroutes":11597,"Ġyuk":11598,"Ġfluid":11599,"Ġfluke":11600,"Ġdistracted":11601,"Ġprocedures":11602,"Ġclimb":11603,"Ġflorida":11604,"Ġaccomodate":11605,"Ġkalbi":11606,"nlooking":11607,"Ġcocoa":11608,"Ġmotorcy":11609,"Ġmccarran":11610,"Ġrigatoni":11611,"Ġsubstantial":11612,"Ġhouston":11613,"Ġignorant":11614,"Ġexperiment":11615,"Ġadobo":11616,"Ġhazelnut":11617,"Ġjackson":11618,"Ġchutney":11619,"Ġciabatta":11620,"Ġdynamite":11621,"Ġnikki":11622,"Ġchilis":11623,"Ġarrowhead":11624,"Ġatrocious":11625,"Ġszechuan":11626,"Ġpomegranate":11627,"Ġportobello":11628,"Ġillegal":11629,"Ġreimbur":11630,"Ġrowdy":11631,"Ġforewarned":11632,"Ġoranges":11633,"Ġraviolis":11634,"Ġfiesta":11635,"Ġdallas":11636,"Ġchelsea":11637,"Ġsaffron":11638,"Ġadobada":11639,"Ġpoblano":11640,"!...":11641,"):\\":11642,"05":11643,"09":11644,"79":11645,"cation":11646,"doba":11647,"fest":11648,"filled":11649,"girls":11650,"hl":11651,"lou":11652,"nher":11653,"npl":11654,"navoid":11655,"rally":11656,"rude":11657,"uri":11658,"vit":11659,"xistent":11660,"zer":11661,"Ġ.....":11662,"Ġtu":11663,"Ġils":11664,"Ġshank":11665,"Ġfaves":11666,"Ġconey":11667,"Ġcatered":11668,"Ġcvs":11669,"Ġmimi":11670,"Ġpunk":11671,"Ġpairs":11672,"Ġpages":11673,"Ġporn":11674,"Ġpsy":11675,"Ġtoro":11676,"Ġdai":11677,"Ġgou":11678,"Ġgals":11679,"Ġnib":11680,"athetic":11681,"Ġwashes":11682,"isin":11683,"oman":11684,"lee":11685,"Ġyards":11686,"Ġisol":11687,"Ġstench":11688,"iration":11689,"Ġplum":11690,"Ġplague":11691,"Ġsoccer":11692,"Ġwhist":11693,"Ġwhirl":11694,"chocolate":11695,"tery":11696,"Ġtier":11697,"Ġtiger":11698,"Ġkom":11699,"Ġgovern":11700,"Ġfrying":11701,"Ġdock":11702,"Ġaller":11703,"Ġlocks":11704,"endroit":11705,"Ġvon":11706,"Ġcage":11707,"ander":11708,"Ġcoach":11709,"Ġcoverage":11710,"Ġcones":11711,"ective":11712,"Ġ150":11713,"ints":11714,"Ġclip":11715,"Ġmina":11716,"Ġdecides":11717,"Ġcompote":11718,"Ġcompassion":11719,"Ġsmug":11720,"Ġunaware":11721,"Ġsliding":11722,"Ġwalnuts":11723,"Ġscored":11724,"Ġvisa":11725,"Ġdesp":11726,"Ġenjoys":11727,"ixed":11728,"Ġkeen":11729,"Ġkeith":11730,"Ġextend":11731,"nsave":11732,"Ġattent":11733,"Ġshave":11734,"Ġdrift":11735,"Ġtremend":11736,"Ġhorses":11737,"Ġlaure":11738,"Ġchoix":11739,"Ġwalkway":11740,"Ġfactors":11741,"ibi":11742,"Ġmedia":11743,"Ġmains":11744,"Ġmainstream":11745,"Ġpacking":11746,"Ġairpl":11747,"Ġyumm":11748,"Ġmixes":11749,"Ġcereal":11750,"Ġhosted":11751,"Ġthailand":11752,"Ġintegr":11753,"!!!!!\\":11754,"!!!!!!!":11755,"Ġimitation":11756,"Ġdiscri":11757,"Ġdiscour":11758,"Ġconcession":11759,"Ġtempting":11760,"Ġconsisting":11761,"Ġranks":11762,"Ġpapers":11763,"Ġcabernet":11764,"Ġfaire":11765,"Ġpanels":11766,"Ġposter":11767,"close":11768,"Ġinvis":11769,"Ġmouths":11770,"umbing":11771,"Ġnonexistent":11772,"Ġcharleston":11773,"Ġpetit":11774,"Ġhygi":11775,"Ġpours":11776,"Ġmontr":11777,"ĠĠĠĠĠĠĠĠĠĠĠ":11778,"Ġkicking":11779,"Ġwatches":11780,"bbie":11781,"nstay":11782,"Ġyogurtland":11783,"Ġsilent":11784,"Ġkilling":11785,"Ġgeared":11786,"Ġhiking":11787,"Ġhurting":11788,"Ġrobes":11789,"unts":11790,"Ġahwat":11791,"Ġ:-(":11792,"Ġelectrical":11793,"Ġcellar":11794,"Ġpinot":11795,"worth":11796,"Ġsusan":11797,"Ġradi":11798,"Ġcrystal":11799,"Ġindividually":11800,"Ġdestroy":11801,"Ġbumper":11802,"Ġbanging":11803,"green":11804,"Ġfires":11805,"Ġindividuals":11806,"Ġhesitation":11807,"Ġpillow":11808,"Ġbenefits":11809,"Ġracist":11810,"Ġinconsist":11811,"Ġmechanics":11812,"Ġalmonds":11813,"Ġparmig":11814,"Ġdiscussing":11815,"Ġphysically":11816,"Ġtattoos":11817,"Ġsmashburger":11818,"Ġtolerable":11819,"Ġplatform":11820,"huge":11821,"Ġcoinc":11822,"Ġmorton":11823,"Ġresembled":11824,"nlocation":11825,"hensive":11826,"Ġpassenger":11827,"Ġexaggerating":11828,"Ġporterhouse":11829,"Ġcomedian":11830,"Ġbodies":11831,"Ġraisins":11832,"Ġphysician":11833,"Ġthroat":11834,"Ġdemeanor":11835,"flavored":11836,"Ġclerks":11837,"Ġaccustomed":11838,"Ġahwatukee":11839,"56":11840,"89":11841,"800":11842,"]\\":11843,"ae":11844,"bra":11845,"buff":11846,"dom":11847,"fas":11848,"fle":11849,"fil":11850,"find":11851,"hia":11852,"ife":11853,"kle":11854,"kip":11855,"lv":11856,"npeople":11857,"wtf":11858,"xx":11859,"Ġ***":11860,"Ġsie":11861,"Ġbros":11862,"Ġbachi":11863,"Ġcib":11864,"Ġpp":11865,"Ġpent":11866,"Ġpars":11867,"Ġpamp":11868,"Ġtobac":11869,"Ġdor":11870,"Ġgam":11871,"orient":11872,"Ġlac":11873,"Ġnv":11874,"atra":11875,"ota":11876,"Ġhamp":11877,"Ġhalo":11878,"veget":11879,"Ġetern":11880,"ooper":11881,"Ġbeard":11882,"Ġreass":11883,"Ġreject":11884,"Ġyah":11885,"Ġhond":11886,"Ġhog":11887,"Ġstout":11888,"Ġyoure":11889,"owl":11890,"Ġhero":11891,"state":11892,"kered":11893,"Ġplugs":11894,"Ġplumbing":11895,"Ġsoir":11896,"Ġasp":11897,"Ġjon":11898,"Ġliv":11899,"Ġseper":11900,"Ġrund":11901,"Ġryan":11902,"ffin":11903,"Ġkha":11904,"Ġ(?)":11905,"Ġfrat":11906,"Ġshook":11907,"gee":11908,"Ġdose":11909,"Ġwheels":11910,"Ġlogo":11911,"Ġusher":11912,"ulpt":11913,"Ġcavi":11914,"Ġbackyard":11915,"Ġwhatnot":11916,"Ġamateur":11917,"ctional":11918,"Ġprecious":11919,"Ġflood":11920,"agi":11921,"Ġprohib":11922,"Ġoffices":11923,"Ġseeking":11924,"Ġpea":11925,"Ġbypass":11926,"itto":11927,"immer":11928,"Ġmugs":11929,"Ġteens":11930,"erienced":11931,"Ġunapp":11932,"Ġguid":11933,"Ġtrails":11934,"comfort":11935,"Ġbarley":11936,"Ġnightlife":11937,"Ġdaybed":11938,"Ġadjo":11939,"Ġburr":11940,"Ġblat":11941,"before":11942,"appe":11943,"Ġstepping":11944,"Ġcarries":11945,"Ġ400":11946,"Ġache":11947,"Ġcreation":11948,"Ġdisappoints":11949,"Ġimpact":11950,"Ġspecializes":11951,"nsure":11952,"Ġhighway":11953,"mmy":11954,"Ġattire":11955,"Ġjoked":11956,"Ġretired":11957,"Ġsurly":11958,"Ġinstrum":11959,"Ġconsumption":11960,"odont":11961,"Ġuseful":11962,"Ġrecover":11963,"naw":11964,"Ġremar":11965,"Ġfacts":11966,"Ġ65":11967,"nbl":11968,"Ġshoved":11969,"ashi":11970,"angles":11971,"Ġstoked":11972,"Ġgarl":11973,"authentic":11974,"Ġinfamous":11975,"Ġmidwest":11976,"Ġsubur":11977,"Ġminds":11978,"Ġblackberry":11979,"Ġestate":11980,"velt":11981,"bris":11982,"oosevelt":11983,"Ġadvis":11984,"Ġalongside":11985,"Ġhopeful":11986,"Ġpeppercorn":11987,"Ġslightest":11988,"Ġfatburger":11989,"Ġfollows":11990,"shrimp":11991,"Ġtape":11992,"Ġtournam":11993,"Ġsquir":11994,"Ġapproved":11995,"Ġequipped":11996,"Ġadmin":11997,"Ġmeds":11998,"Ġmedall":11999,"Ġsouthwestern":12000,"Ġdips":12001,"Ġsituations":12002,"Ġfireplace":12003,"minute":12004,"Ġaccommodations":12005,"Ġnickel":12006,"Ġimported":12007,"Ġeaster":12008,"Ġtendon":12009,"Ġperformer":12010,"Ġperformances":12011,"valu":12012,"fruit":12013,"Ġhoneymoon":12014,"Ġpopularity":12015,"Ġupsetting":12016,"Ġexploring":12017,"guy":12018,"Ġtoiletries":12019,"nhaving":12020,"marked":12021,"Ġdivey":12022,"Ġ2007":12023,"Ġrainy":12024,"Ġconcerts":12025,"Ġaudio":12026,"omeness":12027,"Ġbumping":12028,"ographic":12029,"Ġcandles":12030,"Ġpatronize":12031,"Ġbustle":12032,"Ġsuffering":12033,"Ġbao":12034,"Ġhomes":12035,"Ġdennys":12036,"Ġcubes":12037,"Ġchipping":12038,"Ġqdoba":12039,"Ġeyebrow":12040,"Ġincreased":12041,"Ġadjusted":12042,"Ġresolve":12043,"Ġpersian":12044,"--------------------------------":12045,"Ġpiercing":12046,"Ġshelter":12047,"Ġindulg":12048,"Ġsymptom":12049,"Ġtechnology":12050,"Ġoutfit":12051,"Ġstruggling":12052,"party":12053,"Ġdeveloped":12054,"Ġcompensate":12055,"Ġpremier":12056,"Ġvacuumed":12057,"Ġgathering":12058,"Ġaccomodating":12059,"nlocated":12060,"Ġachieve":12061,"ndecor":12062,"Ġclarify":12063,"Ġhenry":12064,"Ġlounges":12065,"Ġpirate":12066,"atziki":12067,"Ġconveyor":12068,"Ġinfluence":12069,"Ġgimmick":12070,"Ġwristband":12071,"Ġmarginal":12072,"Ġnestled":12073,"Ġchemicals":12074,"cellent":12075,"Ġvicinity":12076,"Ġconfronted":12077,"Ġtzatziki":12078,"Ġnordst":12079,"Ġawesomeness":12080,"Ġrefined":12081,"ferences":12082,"Ġrescue":12083,"Ġcancellation":12084,"Ġleisure":12085,"Ġenergetic":12086,"Ġunbear":12087,"Ġunapologetic":12088,"Ġgrapefruit":12089,"Ġtobacco":12090,"Ġrundown":12091,"Ġsymptoms":12092,"aire":12093,"cur":12094,"call":12095,"cast":12096,"cient":12097,"called":12098,"dos":12099,"ease":12100,"fre":12101,"fine":12102,"gled":12103,"giano":12104,"hound":12105,"ku":12106,"lan":12107,"lished":12108,"mat":12109,"nplace":12110,"pay":12111,"wine":12112,"yer":12113,"yet":12114,"Ġamex":12115,"Ġwiz":12116,"Ġward":12117,"Ġsis":12118,"Ġsass":12119,"rement":12120,"Ġbond":12121,"Ġfame":12122,"Ġciv":12123,"Ġpes":12124,"Ġpond":12125,"Ġdab":12126,"Ġdane":12127,"Ġges":12128,"Ġgaz":12129,"llas":12130,"llini":12131,"Ġluster":12132,"Ġnou":12133,"icion":12134,"Ġhats":12135,"Ġhaben":12136,"Ġeffic":12137,"Ġbears":12138,"Ġrein":12139,"Ġreference":12140,"Ġforcing":12141,"Ġforbid":12142,"Ġhiring":12143,"etc":12144,"Ġmystere":12145,"Ġnotified":12146,"adelp":12147,"roph":12148,"Ġplast":12149,"Ġplump":12150,"ntom":12151,"ntook":12152,"Ġjay":12153,"Ġlib":12154,"Ġsew":12155,"Ġseab":12156,"Ġneut":12157,"Ġexists":12158,"Ġexisted":12159,"Ġexistent":12160,"Ġalo":12161,"Ġalike":12162,"Ġroosevelt":12163,"Ġkate":12164,"acked":12165,"Ġspec":12166,"Ġabc":12167,"Ġvind":12168,"uls":12169,"Ġcaps":12170,"Ġroach":12171,"arte":12172,"artender":12173,"Ġnoir":12174,"Ġnoda":12175,"Ġexpo":12176,"Ġcoy":12177,"Ġcosy":12178,"Ġshep":12179,"Ġprecise":12180,"ounding":12181,"Ġflake":12182,"Ġknees":12183,"Ġaftertaste":12184,"wear":12185,"Ġbron":12186,"Ġbrave":12187,"Ġdecaf":12188,"Ġmudd":12189,"erials":12190,"Ġunreal":12191,"Ġunsafe":12192,"Ġtra":12193,"udging":12194,"Ġhertz":12195,"Ġburgr":12196,"Ġdownfall":12197,"Ġsche":12198,"Ġscri":12199,"Ġscience":12200,"Ġscones":12201,"Ġsculpt":12202,"Ġclever":12203,"Ġentit":12204,"Ġcharcut":12205,"Ġsandals":12206,"Ġelabor":12207,"Ġendure":12208,"Ġglow":12209,"Ġletdown":12210,"Ġchangs":12211,"Ġdifferences":12212,"Ġshades":12213,"Ġshawarma":12214,"Ġjoining":12215,"Ġdrives":12216,"Ġinstit":12217,"Ġreflex":12218,"oddy":12219,"Ġavait":12220,"Ġlessons":12221,"Ġrecon":12222,"Ġplayground":12223,"Ġremade":12224,"Ġeasiest":12225,"nbreakfast":12226,"Ġshove":12227,"Ġlisting":12228,"Ġstray":12229,"Ġzipps":12230,"sauce":12231,"Ġcentrally":12232,"Ġhosting":12233,"Ġpresident":12234,"Ġpoppers":12235,"Ġswanky":12236,"Ġsprings":12237,"Ġsuggests":12238,"Ġbuttermilk":12239,"Ġdiscussed":12240,"Ġimmac":12241,"Ġsingers":12242,"Ġpainfully":12243,"Ġboyfriends":12244,"npork":12245,"Ġmodest":12246,"Ġtalkative":12247,"ooooo":12248,"Ġtrainer":12249,"nla":12250,"Ġdescribing":12251,"Ġbegins":12252,"Ġamericano":12253,"Ġnailed":12254,"Ġsalesperson":12255,"Ġhyp":12256,"Ġtransition":12257,"Ġshuttles":12258,"Ġladen":12259,"Ġtenants":12260,"Ġmartin":12261,"Ġmcd":12262,"Ġtubes":12263,"crack":12264,"visit":12265,"1000":12266,"Ġxmas":12267,"Ġdefault":12268,"Ġflyer":12269,"Ġcrackers":12270,"Ġreceipts":12271,"Ġefficiently":12272,"Ġbatteries":12273,"Ġmaterials":12274,"Ġrespectful":12275,"Ġefforts":12276,"Ġattractions":12277,"Ġspoonful":12278,"Ġbuddha":12279,"nbeef":12280,"Ġwednesdays":12281,"Ġ:-)\\":12282,"Ġevident":12283,"Ġdispleas":12284,"Ġripoff":12285,"Ġobsessed":12286,"Ġpromoters":12287,"Ġregretted":12288,"Ġfestiv":12289,"Ġconnecting":12290,"Ġreferring":12291,"Ġoverwhelmingly":12292,"Ġyucky":12293,"Ġremodeling":12294,"Ġoverlooks":12295,"Ġbuzzing":12296,"Ġtherapists":12297,"Ġdisappear":12298,"Ġpurposely":12299,"Ġmojitos":12300,"foot":12301,"Ġunderstatement":12302,"Ġcurtain":12303,"Ġpearl":12304,"Ġincorpor":12305,"Ġtechnicians":12306,"Ġlinens":12307,"Ġadvertisement":12308,"Ġphotographer":12309,"appetizers":12310,"Ġstinky":12311,"Ġstruggle":12312,"Ġassez":12313,"Ġbubbly":12314,"Ġpacific":12315,"Ġsarah":12316,"Ġthreatened":12317,"Ġvictoria":12318,"uvian":12319,"Ġregistration":12320,"Ġrevolving":12321,"Ġjunior":12322,"chinese":12323,"Ġclogged":12324,"Ġcarmelized":12325,"Ġclaust":12326,"Ġpeeps":12327,"Ġmarshmallow":12328,"Ġrevisit":12329,"Ġmichelle":12330,"Ġdramatic":12331,"nsadly":12332,"nbasically":12333,"Ġcircumstances":12334,"Ġbeignets":12335,"Ġbravo":12336,"Ġrussian":12337,"Ġlandscaping":12338,"Ġstorage":12339,"Ġdelmonico":12340,"adelphia":12341,"Ġelaborate":12342,"$.":12343,"+.":12344,".(":12345,"44":12346,"?\\\".":12347,"afe":12348,"bot":12349,"bits":12350,"cal":12351,"eh":12352,"ev":12353,"eur":12354,"fancy":12355,"iency":12356,"lit":12357,"lant":12358,"ml":12359,"mid":12360,"mates":12361,"mills":12362,"nay":12363,"nos":12364,"nside":12365,"piece":12366,"squ":12367,"sum":12368,"wire":12369,"Ġtl":12370,"Ġtah":12371,"Ġtails":12372,"Ġwir":12373,"Ġwie":12374,"Ġsust":12375,"Ġsons":12376,"Ġog":12377,"Ġowe":12378,"inner":12379,"inals":12380,"Ġbast":12381,"Ġfaded":12382,"Ġmental":12383,"haw":12384,"haus":12385,"asse":12386,"Ġpits":12387,"Ġtokyo":12388,"edly":12389,"Ġloop":12390,"Ġlcd":12391,"atin":12392,"atelier":12393,"Ġelli":12394,"user":12395,"Ġforty":12396,"ald":12397,"ettes":12398,"Ġstages":12399,"Ġhectic":12400,"stuffed":12401,"Ġplats":12402,"Ġul":12403,"Ġufc":12404,"Ġanx":12405,"Ġjab":12406,"Ġjane":12407,"Ġjosh":12408,"Ġlips":12409,"ppe":12410,"ppin":12411,"chic":12412,"Ġgoodbye":12413,"Ġron":12414,"Ġrise":12415,"Ġkle":12416,"Ġkah":12417,"Ġkitty":12418,"Ġgoal":12419,"Ġspite":12420,"Ġfrisco":12421,"Ġchit":12422,"Ġchore":12423,"Ġdodge":12424,"Ġaband":12425,"Ġvoid":12426,"Ġcheery":12427,"Ġcheek":12428,"Ġwaaaay":12429,"Ġcages":12430,"ieux":12431,"Ġcoors":12432,"Ġdisinterested":12433,"Ġamber":12434,"ounded":12435,"Ġflir":12436,"Ġoffense":12437,"Ġmoi":12438,"Ġpeeling":12439,"Ġ110":12440,"Ġbye":12441,"Ġclou":12442,"Ġclad":12443,"Ġcluster":12444,"Ġrien":12445,"Ġripe":12446,"Ġcompre":12447,"Ġroomy":12448,"Ġwells":12449,"Ġwellington":12450,"erience":12451,"Ġunknown":12452,"Ġ33":12453,"Ġchickens":12454,"Ġstaffing":12455,"Ġperuvian":12456,"Ġcheckin":12457,"Ġvision":12458,"Ġchart":12459,"Ġcharger":12460,"Ġwrapping":12461,"Ġparlor":12462,"Ġspecialties":12463,"nsha":12464,"Ġfreeze":12465,"Ġcoron":12466,"Ġrefusing":12467,"Ġcontam":12468,"nwh":12469,"Ġspotless":12470,"Ġmuscle":12471,"Ġreccome":12472,"Ġrunners":12473,"cold":12474,"Ġremedy":12475,"Ġredone":12476,"Ġfiller":12477,"Ġflooring":12478,"Ġskirts":12479,"Ġstromb":12480,"Ġassure":12481,"Ġasshole":12482,"Ġstylish":12483,"Ġpacket":12484,"Ġpackaging":12485,"nclean":12486,"encies":12487,"yere":12488,"Ġbedding":12489,"Ġinsert":12490,"Ġwarmth":12491,"Ġbelief":12492,"play":12493,"Ġpromises":12494,"Ġtemps":12495,"Ġcockro":12496,"Ġcola":12497,"iliated":12498,"Ġarticle":12499,"Ġannounce":12500,"npizza":12501,"Ġpresents":12502,"Ġsolve":12503,"Ġpanel":12504,"Ġribbon":12505,"Ġbanquet":12506,"Ġreminder":12507,"aneous":12508,"Ġequals":12509,"Ġengaging":12510,"Ġheaters":12511,"Ġspecify":12512,"Ġminiature":12513,"Ġmaggiano":12514,"Ġrichness":12515,"Ġsystems":12516,"Ġstephan":12517,"Ġraves":12518,"Ġcompeting":12519,"obviously":12520,"Ġcircles":12521,"Ġsanitary":12522,"Ġavocados":12523,"Ġmothers":12524,"Ġfrequenting":12525,"Ġcuisines":12526,"Ġhurts":12527,"Ġhurried":12528,"Ġcolleague":12529,"Ġroman":12530,"mmmmm":12531,"Ġmotion":12532,"Ġboobs":12533,"nhave":12534,"Ġjama":12535,"Ġjudged":12536,"Ġlanding":12537,"Ġchilean":12538,"hyped":12539,"black":12540,"Ġhahaha":12541,"Ġradius":12542,"Ġwannab":12543,"chanal":12544,"Ġskewer":12545,"menu":12546,"Ġsipping":12547,"Ġcritique":12548,"Ġbumped":12549,"buy":12550,"Ġresponsive":12551,"Ġsuitable":12552,"Ġsuffice":12553,"Ġblasting":12554,"salsa":12555,"Ġvoicemail":12556,"Ġcranberries":12557,"Ġsubscri":12558,"erkraut":12559,"Ġchickpe":12560,"Ġprinter":12561,"Ġcafes":12562,"ĠĠĠĠĠĠĠĠĠĠĠĠĠĠĠĠĠĠĠĠĠĠĠĠĠĠĠĠĠĠĠĠ":12563,"Ġmoderate":12564,"Ġlengthy":12565,"Ġanticipating":12566,"Ġarrangements":12567,"Ġtrailer":12568,"Ġ~$":12569,"Ġphotography":12570,"juana":12571,"Ġinsulted":12572,"Ġfunds":12573,"Ġdocument":12574,"Ġbriefly":12575,"Ġginormous":12576,"Ġbritney":12577,"Ġexclusive":12578,"Ġeyed":12579,"Ġflawless":12580,"Ġgrainy":12581,"Ġfettuc":12582,"Ġsarc":12583,"Ġmentally":12584,"nshrimp":12585,"Ġmagazines":12586,"Ġcrime":12587,"Ġconsumer":12588,"decent":12589,"Ġpuppies":12590,"Ġkoi":12591,"Ġregistered":12592,"~~~~~~~~":12593,"Ġescalator":12594,"Ġhistoric":12595,"Ġhistorical":12596,"Ġdispenser":12597,"Ġintimidating":12598,"phant":12599,"Ġgraduation":12600,"Ġcaffeine":12601,"Ġreluctantly":12602,"nyeah":12603,"normal":12604,"Ġclaws":12605,"Ġtidy":12606,"Ġbikini":12607,"Ġpedestrian":12608,"Ġsauerkraut":12609,"Ġswallow":12610,"Ġvraiment":12611,"Ġgossip":12612,"Ġpropriet":12613,"prisingly":12614,"Ġisolated":12615,"Ġcibo":12616,"Ġpenthouse":12617,"Ġhampton":12618,"Ġeternity":12619,"Ġcaviar":12620,"Ġburrata":12621,"Ġscript":12622,"Ġclaustroph":12623,"Ġreccomend":12624,"Ġstromboli":12625,"!).\\":12626,"($":12627,"54":12628,"booked":12629,"bones":12630,"dress":12631,"elle":12632,"fam":12633,"frozen":12634,"gal":12635,"kana":12636,"lord":12637,"lots":12638,"nz":12639,"nles":12640,"nkeep":12641,"napparently":12642,"oly":12643,"rants":12644,"tim":12645,"tons":12646,"trip":12647,"uini":12648,"vine":12649,"wanese":12650,"wurst":12651,"Ġ).":12652,"Ġ!!\\":12653,"Ġshat":12654,"Ġsous":12655,"rets":12656,"Ġoops":12657,"inc":12658,"Ġbm":12659,"Ġbah":12660,"Ġcumin":12661,"Ġmound":12662,"Ġmount":12663,"Ġmors":12664,"haul":12665,"Ġpipe":12666,"Ġponz":12667,"Ġdice":12668,"esides":12669,"Ġlor":12670,"Ġlinda":12671,"itaville":12672,"onge":12673,"atur":12674,"atos":12675,"atte":12676,"otally":12677,"Ġhav":12678,"Ġeiff":12679,"Ġbev":12680,"acles":12681,"Ġhic":12682,"ribs":12683,"Ġathlet":12684,"Ġanger":12685,"Ġankle":12686,"usted":12687,"Ġliar":12688,"Ġseedy":12689,"chos":12690,"Ġsakana":12691,"Ġgoodyear":12692,"Ġalb":12693,"Ġales":12694,"Ġrug":12695,"Ġky":12696,"Ġfrance":12697,"Ġshu":12698,"Ġshoddy":12699,"Ġchimi":12700,"Ġdol":12701,"quette":12702,"Ġgreets":12703,"those":12704,"oph":12705,"Ġvit":12706,"Ġvons":12707,"Ġviva":12708,"ulu":12709,"inkle":12710,"...).":12711,"Ġcalend":12712,"Ġgreater":12713,"andy":12714,"Ġroots":12715,"Ġcoca":12716,"Ġcokes":12717,"oush":12718,"Ġdemon":12719,"Ġdeux":12720,"inder":12721,"Ġamanda":12722,"Ġoverload":12723,"Ġovercook":12724,"Ġfloo":12725,"Ġflore":12726,"Ġflaut":12727,"Ġrestar":12728,"Ġdrama":12729,"Ġenem":12730,"Ġcranky":12731,"Ġcraziness":12732,"Ġrival":12733,"oyd":12734,"Ġbueno":12735,"Ġcomprom":12736,"Ġteach":12737,"Ġteams":12738,"Ġhotwire":12739,"Ġappare":12740,"Ġburgh":12741,"Ġdies":12742,"Ġdives":12743,"Ġslop":12744,"Ġslapped":12745,"Ġpartake":12746,"Ġscone":12747,"Ġsteaming":12748,"Ġhappiness":12749,"Ġbuses":12750,"Ġ54":12751,"Ġvisibly":12752,"Ġawfully":12753,"Ġdescent":12754,"Ġresulting":12755,"Ġspeciality":12756,"Ġspecialize":12757,"nspe":12758,"nskip":12759,"Ġboiling":12760,"Ġshadow":12761,"Ġsweetened":12762,"Ġstripper":12763,"Ġstrippers":12764,"these":12765,"utely":12766,"ngr":12767,"pepper":12768,"Ġregional":12769,"Ġcorral":12770,"hence":12771,"Ġportug":12772,"lime":12773,"Ġlargely":12774,"Ġpicks":12775,"Ġfreund":12776,"nfl":12777,"nfree":12778,"Ġcountries":12779,"ucca":12780,"covered":12781,"Ġhovering":12782,"Ġsecondly":12783,"Ġcuticle":12784,"Ġmusicians":12785,"nbr":12786,"nbesides":12787,"Ġclosely":12788,"Ġbuyer":12789,"Ġassess":12790,"Ġvaries":12791,"cials":12792,"Ġcostumer":12793,"Ġposh":12794,"Ġrelig":12795,"Ġreloc":12796,"Ġaccord":12797,"Ġfanatic":12798,"Ġfairness":12799,"Ġmixing":12800,"Ġkitchenette":12801,"Ġinterview":12802,"Ġremembers":12803,"Ġspendy":12804,"Ġminded":12805,"Ġwallpaper":12806,"Ġfantasy":12807,"Ġobt":12808,"Ġlowered":12809,"Ġmacy":12810,"Ġsuggesting":12811,"Ġimages":12812,"bury":12813,"Ġprepaid":12814,"Ġmoms":12815,"Ġpopulation":12816,"Ġuniverse":12817,"eyes":12818,"Ġscreams":12819,"Ġartisan":12820,"however":12821,"Ġoils":12822,"Ġscotland":12823,"Ġeleven":12824,"Ġcommission":12825,"Ġdetract":12826,"Ġdetroit":12827,"Ġforeign":12828,"Ġmelissa":12829,"Ġtours":12830,"Ġtrains":12831,"nlunch":12832,"Ġhumid":12833,"nmin":12834,"nmar":12835,"Ġconduct":12836,"Ġcondensed":12837,"Ġ=(":12838,"eee":12839,"Ġclearing":12840,"Ġdances":12841,"Ġengland":12842,"Ġsends":12843,"Ġnoticeably":12844,"140":12845,"Ġversions":12846,"aimer":12847,"Ġomelettes":12848,"Ġtaxis":12849,"Ġera":12850,"Ġdesigners":12851,"Ġdesignated":12852,"Ġbaker":12853,"nsteak":12854,"Ġpatrick":12855,"Ġnapole":12856,"Ġdefensive":12857,"Ġdeparture":12858,"Ġdoughnut":12859,"Ġdevoid":12860,"Ġrobuch":12861,"Ġfurnishing":12862,"Ġmerc":12863,"Ġexpression":12864,"Ġjammed":12865,"Ġjudgment":12866,"Ġcarson":12867,"Ġvoll":12868,"blue":12869,"Ġinexperienced":12870,"Ġfavs":12871,"Ġevol":12872,"Ġargent":12873,"worked":12874,"working":12875,"Ġtags":12876,"Ġradish":12877,"Ġinstruction":12878,"sunday":12879,"Ġdusted":12880,"Ġlockers":12881,"Ġbullet":12882,"Ġpurely":12883,"Ġchandelier":12884,"Ġperiodically":12885,"Ġfleur":12886,"Ġinvolve":12887,"Ġjudgement":12888,"notherwise":12889,"Ġprescribed":12890,"Ġfedex":12891,"Ġexisting":12892,"Ġteeny":12893,"Ġporch":12894,"Ġhunting":12895,"Ġcertified":12896,"Ġcontempl":12897,"Ġdeceiving":12898,"Ġlinguini":12899,"Ġslamming":12900,"Ġounces":12901,"Ġremotely":12902,"Ġidentify":12903,"Ġgarnished":12904,"Ġviolations":12905,"Ġcontrary":12906,"Ġinevit":12907,"Ġavoir":12908,"Ġstunned":12909,"Ġtataki":12910,"Ġclimbing":12911,"Ġrudest":12912,"Ġpremises":12913,"Ġrescheduled":12914,"Ġbroadway":12915,"Ġdebating":12916,"Ġpermission":12917,"wrapped":12918,"Ġsocal":12919,"Ġalbertson":12920,"Ġalbertsons":12921,"Ġpuppet":12922,"Ġleches":12923,"ealing":12924,"nprobably":12925,"putting":12926,"Ġcontinuously":12927,"Ġlifestyle":12928,"Ġalterations":12929,"Ġcarbonara":12930,"Ġlollipops":12931,"Ġcannoli":12932,"Ġjukebox":12933,"Ġtechniques":12934,"Ġnostalgic":12935,"Ġsacrif":12936,"Ġcarnivore":12937,"Ġmanufacture":12938,"Ġrestrictions":12939,"Ġcordial":12940,"Ġexplosion":12941,"Ġflexible":12942,"Ġquelques":12943,"Ġjessica":12944,"Ġmacayo":12945,"Ġschnitzel":12946,"double":12947,"Ġprimanti":12948,"Ġhonda":12949,"Ġadjoining":12950,"Ġinstruments":12951,"odontist":12952,"Ġgarlicky":12953,"Ġcharcuterie":12954,"Ġclaustrophob":12955,"Ġrobuchon":12956,"?...":12957,"bows":12958,"cous":12959,"cos":12960,"cca":12961,"cups":12962,"fs":12963,"gon":12964,"gel":12965,"hub":12966,"jon":12967,"kan":12968,"kinda":12969,"lest":12970,"little":12971,"mt":12972,"might":12973,"nfast":12974,"nrooms":12975,"oot":12976,"poor":12977,"rays":12978,"sn":12979,"sun":12980,"than":12981,"uca":12982,"welcome":12983,"woman":12984,"yr":12985,"zt":12986,"Ġtak":12987,"Ġaid":12988,"Ġicon":12989,"Ġwis":12990,"Ġwig":12991,"Ġsips":12992,"Ġouch":12993,"Ġbos":12994,"ndis":12995,"ndinner":12996,"Ġfist":12997,"Ġcotta":12998,"Ġmrs":12999,"Ġpb":13000,"Ġdm":13001,"Ġgaw":13002,"orbit":13003,"enade":13004,"esp":13005,"oto":13006,"Ġhazard":13007,"arn":13008,"ushes":13009,"Ġbeck":13010,"aling":13011,"aloo":13012,"Ġstones":13013,"rike":13014,"ribute":13015,"urger":13016,"oodoo":13017,"stra":13018,"entable":13019,"road":13020,"irin":13021,"Ġsofas":13022,"Ġasia":13023,"Ġwerent":13024,"ntake":13025,"ntotal":13026,"Ġjams":13027,"Ġarent":13028,"Ġsees":13029,"Ġsealed":13030,"illac":13031,"Ġsaig":13032,"Ġtied":13033,"Ġrank":13034,"seafood":13035,"Ġkona":13036,"Ġkfc":13037,"Ġspilling":13038,"Ġfrys":13039,"Ġfraction":13040,"Ġshir":13041,"Ġchiles":13042,"estring":13043,"aks":13044,"ophy":13045,"Ġwaren":13046,"Ġcancer":13047,"ande":13048,"Ġrole":13049,"Ġroaches":13050,"Ġnos":13051,"Ġbackwards":13052,"Ġcoaster":13053,"osure":13054,"Ġdefe":13055,"Ġleek":13056,"Ġamusing":13057,"Ġwilli":13058,"Ġflick":13059,"Ġflipping":13060,"Ġproven":13061,"igo":13062,"igan":13063,"Ġmovers":13064,"Ġpeop":13065,"Ġpeaches":13066,"Ġknee":13067,"Ġsaliv":13068,"Ġclowns":13069,"week":13070,"ongous":13071,"apore":13072,"Ġbritt":13073,"umably":13074,"Ġbark":13075,"Ġbarrier":13076,"Ġ36":13077,"Ġdiversity":13078,"Ġsls":13079,"Ġperusing":13080,"Ġfewer":13081,"bery":13082,"Ġenticing":13083,"noff":13084,"Ġkeller":13085,"Ġthrows":13086,"Ġsidewalk":13087,"Ġglory":13088,"nsmall":13089,"Ġincome":13090,"Ġsweep":13091,"Ġboom":13092,"Ġshaker":13093,"Ġgibt":13094,"Ġbreaker":13095,"Ġjoel":13096,"Ġcoupled":13097,"Ġretrie":13098,"Ġhug":13099,"Ġmanaging":13100,"Ġlarry":13101,"Ġregion":13102,"Ġrefuses":13103,"Ġconscious":13104,"Ġfargo":13105,"Ġcreams":13106,"!!!)":13107,"Ġlesser":13108,"Ġhousehold":13109,"Ġremake":13110,"Ġhoisin":13111,"ierra":13112,"oths":13113,"Ġdecorating":13114,"Ġpoolside":13115,"Ġyelped":13116,"Ġpicasso":13117,"umped":13118,"Ġbacchanal":13119,"idering":13120,"ungs":13121,"rities":13122,"Ġbellini":13123,"Ġobli":13124,"Ġlowe":13125,"Ġswore":13126,"Ġswip":13127,"Ġswift":13128,"Ġsprite":13129,"Ġ95":13130,"Ġdollop":13131,"ambiance":13132,"Ġconcessions":13133,"**\\":13134,"Ġadvanced":13135,"Ġguestlist":13136,"Ġbookstore":13137,"Ġoptionz":13138,"Ġedit":13139,"Ġcontinental":13140,"Ġluv":13141,"Ġelephant":13142,"Ġlimits":13143,"Ġposts":13144,"125":13145,"Ġmargaritaville":13146,"aneously":13147,"Ġmask":13148,"Ġrocket":13149,"Ġfilms":13150,"Ġsunflower":13151,"Ġjello":13152,"Ġconditions":13153,"phy":13154,"Ġblender":13155,"Ġfirefly":13156,"forward":13157,"Ġverb":13158,"Ġmagnific":13159,"Ġdifficulty":13160,"Ġcapit":13161,"Ġprocessing":13162,"Ġfailing":13163,"prod":13164,"Ġadvertises":13165,"Ġsilky":13166,"Ġhalls":13167,"Ġyorker":13168,"Ġbouche":13169,"Ġboulev":13170,"chers":13171,"Ġshellfish":13172,"Ġcanton":13173,"nneg":13174,"Ġdaniel":13175,"Ġmozza":13176,"Ġaccounts":13177,"Ġprinting":13178,"Ġtruffled":13179,"Ġjerks":13180,"Ġdigest":13181,"Ġdigital":13182,"Ġantibi":13183,"Ġassistants":13184,"Ġthrifty":13185,"Ġdrawing":13186,"Ġevidence":13187,"Ġresponds":13188,"Ġlaptops":13189,"Ġsenses":13190,"Ġconnections":13191,"Ġopportunities":13192,"Ġcontractor":13193,"Ġpatronage":13194,"Ġnightclubs":13195,"Ġsubstituted":13196,"Ġscooped":13197,"Ġbuttered":13198,"Ġacknowledging":13199,"Ġmarsha":13200,"Ġexistence":13201,"Ġqualities":13202,"Ġqualify":13203,"Ġqualified":13204,"Ġunwel":13205,"Ġgranite":13206,"Ġcollections":13207,"watering":13208,"Ġecst":13209,"Ġgreyhound":13210,"Ġcommercials":13211,"Ġovercharge":13212,"Ġlentils":13213,"Ġteppan":13214,"Ġdiagnosed":13215,"Ġcamper":13216,"Ġtolerate":13217,"****************":13218,"Ġdisturb":13219,"Ġpharmac":13220,"Ġkrispy":13221,"Ġcrimin":13222,"Ġhotdogs":13223,"Ġvictim":13224,"Ġblanco":13225,"Ġtaiwanese":13226,"Ġpilot":13227,"Ġtostadas":13228,"Ġexpanding":13229,"Ġthreading":13230,"Ġsamba":13231,"Ġsambal":13232,"Ġphiladelphia":13233,"Ġappliance":13234,"Ġanchovies":13235,"Ġdrowning":13236,"Ġglorious":13237,"commun":13238,"Ġprivilege":13239,"Ġmosc":13240,"Ġyolk":13241,"Ġjesus":13242,"Ġscantily":13243,"Ġrecyc":13244,"Ġtomatillo":13245,"Ġboulder":13246,"Ġgruyere":13247,"Ġumbrellas":13248,"Ġcadillac":13249,"Ġcelebrities":13250,"lounge":13251,"Ġunappealing":13252,"Ġmedallions":13253,"Ġnordstrom":13254,"Ġponzu":13255,"Ġsaigon":13256,"Ġboulevard":13257,"!\\\".":13258,"##":13259,"bled":13260,"bling":13261,"bartender":13262,"cin":13263,"count":13264,"dain":13265,"drop":13266,"dining":13267,"dirty":13268,"euf":13269,"fry":13270,"fix":13271,"fying":13272,"fbt":13273,"fbl":13274,"game":13275,"gance":13276,"gio":13277,"glass":13278,"jam":13279,"jours":13280,"kish":13281,"liter":13282,"loud":13283,"mac":13284,"main":13285,"mint":13286,"nve":13287,"norder":13288,"oa":13289,"oi":13290,"pacho":13291,"rance":13292,"tube":13293,"thai":13294,"uese":13295,"wind":13296,"wash":13297,"Ġak":13298,"Ġox":13299,"Ġbid":13300,"Ġbait":13301,"Ġbanter":13302,"ndel":13303,"Ġcm":13304,"Ġmop":13305,"ouched":13306,"Ġpam":13307,"Ġpian":13308,"Ġpank":13309,"Ġpills":13310,"Ġpiles":13311,"eder":13312,"Ġduct":13313,"Ġditch":13314,"Ġgoof":13315,"Ġgathered":13316,"Ġlom":13317,"Ġlush":13318,"Ġlup":13319,"Ġlining":13320,"itage":13321,"onc":13322,"Ġnj":13323,"Ġnavy":13324,"ision":13325,"anna":13326,"anitary":13327,"Ġhaus":13328,"Ġweap":13329,"Ġeag":13330,"Ġthigh":13331,"Ġrei":13332,"Ġregg":13333,"Ġrelease":13334,"hate":13335,"ete":13336,"ety":13337,"Ġstk":13338,"stage":13339,"Ġbutts":13340,"aditional":13341,"Ġummm":13342,"Ġanthe":13343,"eca":13344,"Ġseam":13345,"illes":13346,"Ġfoodies":13347,"Ġaloof":13348,"Ġties":13349,"Ġtimed":13350,"Ġtimer":13351,"Ġrink":13352,"Ġkai":13353,"Ġkilt":13354,"Ġkraft":13355,"Ġgods":13356,"outside":13357,"Ġspider":13358,"quick":13359,"Ġgreedy":13360,"Ġabys":13361,"esty":13362,"amiliar":13363,"Ġfriggin":13364,"Ġvor":13365,"Ġvowed":13366,"Ġwaived":13367,"Ġgreatness":13368,"nier":13369,"Ġroger":13370,"Ġrosa":13371,"hana":13372,"Ġexped":13373,"ousing":13374,"osity":13375,"Ġleith":13376,"Ġoversized":13377,"avail":13378,"avana":13379,"Ġfeb":13380,"Ġshea":13381,"Ġmock":13382,"Ġmoco":13383,"\\\"....":13384,"Ġarmy":13385,"Ġmang":13386,"Ġcray":13387,"Ġtastiest":13388,"Ġbrace":13389,"Ġbranc":13390,"Ġvegans":13391,"Ġbets":13392,"Ġbetting":13393,"oupe":13394,"Ġdrinkers":13395,"Ġsmh":13396,"Ġsmores":13397,"Ġgra":13398,"Ġapplies":13399,"Ġappalling":13400,"Ġguided":13401,"Ġfirstly":13402,"Ġmenudo":13403,"Ġbarking":13404,"Ġbarbac":13405,"Ġbarbers":13406,"Ġbarrel":13407,"Ġadop":13408,"Ġ31":13409,"Ġ38":13410,"Ġblunt":13411,"Ġdowns":13412,"Ġdowner":13413,"being":13414,"Ġawake":13415,"Ġphili":13416,"Ġlasts":13417,"emed":13418,"update":13419,"Ġcharco":13420,"Ġkeg":13421,"Ġkelly":13422,"Ġfresco":13423,"Ġextent":13424,"Ġendroit":13425,"Ġmarc":13426,"Ġsweater":13427,"ansas":13428,"Ġbreakdown":13429,"Ġharm":13430,"Ġharvest":13431,"Ġbaseline":13432,"Ġempt":13433,"neach":13434,"orma":13435,"ngar":13436,"Ġhandles":13437,"Ġconsume":13438,"Ġportland":13439,"Ġpointless":13440,"Ġcareer":13441,"Ġrecieved":13442,"nfun":13443,"nfries":13444,"naise":13445,"coffee":13446,"Ġhops":13447,"Ġskilled":13448,"Ġskipping":13449,"Ġgenre":13450,"Ġprize":13451,"Ġstrap":13452,"Ġsupper":13453,"Ġshortage":13454,"Ġapache":13455,"Ġzin":13456,"Ġzach":13457,"Ġpassport":13458,"nifer":13459,"Ġintellig":13460,"Ġsubsequ":13461,"Ġpresumably":13462,"friends":13463,"loom":13464,"Ġpoppy":13465,"Ġimho":13466,"Ġnumb":13467,"Ġfixings":13468,"Ġambient":13469,"taient":13470,"Ġtemporary":13471,"2014":13472,"Ġwinds":13473,"Ġsingapore":13474,"Ġfigs":13475,"Ġgreeter":13476,"imento":13477,"Ġintrusive":13478,"Ġeddie":13479,"Ġsolved":13480,"Ġpanna":13481,"shine":13482,"Ġinvo":13483,"Ġforemost":13484,"Ġlegal":13485,"Ġmovement":13486,"Ġgrandfather":13487,"Ġhumongous":13488,"Ġapproaching":13489,"nmain":13490,"nmake":13491,"Ġsonoran":13492,"Ġmisunder":13493,"Ġsouthpark":13494,"hetta":13495,"Ġballpark":13496,"Ġtechno":13497,"Ġsodium":13498,"Ġtowed":13499,"Ġkicks":13500,"Ġangle":13501,"Ġrubbing":13502,"Ġvacc":13503,"Ġerrors":13504,"Ġ1000":13505,"floor":13506,"Ġbakeries":13507,"Ġupgrades":13508,"Ġbreweries":13509,"Ġsanitation":13510,"Ġcarryout":13511,"Ġchatty":13512,"Ġdevour":13513,"olded":13514,"Ġdann":13515,"Ġdanny":13516,"Ġprints":13517,"given":13518,"Ġhookers":13519,"Ġremoval":13520,"Ġpairings":13521,"does":13522,"Ġdemographic":13523,"Ġessence":13524,"blowing":13525,"Ġdrawer":13526,"180":13527,"Ġaficion":13528,"Ġwhisper":13529,"fcber":13530,"Ġhorrific":13531,"Ġswitching":13532,"liner":13533,"Ġcousins":13534,"Ġdivided":13535,"Ġsuffered":13536,"Ġgroomed":13537,"Ġchiro":13538,"Ġbuzzed":13539,"Ġtilted":13540,"Ġacknowledgement":13541,"Ġsinatra":13542,"bacore":13543,"Ġmaxim":13544,"iffy":13545,"Ġsoaps":13546,"Ġpitiful":13547,"?!?!?":13548,"Ġwiping":13549,"Ġunfamiliar":13550,"Ġofficer":13551,"Ġrefrigerated":13552,"Ġrepresentation":13553,"Ġanticipation":13554,"Ġfields":13555,"Ġrouge":13556,"Ġunreasonable":13557,"Ġstealing":13558,"Ġdutch":13559,"Ġpregnancy":13560,"Ġinefficient":13561,"restaurants":13562,"Ġashtr":13563,"Ġfolded":13564,"Ġlifted":13565,"Ġdiagnosis":13566,"Ġmastro":13567,"Ġcruise":13568,"Ġaddiction":13569,"Ġinventive":13570,"Ġharrahs":13571,"Ġexclus":13572,"Ġflaws":13573,"Ġdemanding":13574,"Ġthreatening":13575,"nambience":13576,"Ġsterile":13577,"Ġcushions":13578,"Ġcontinuing":13579,"Ġamusement":13580,"Ġaesthetic":13581,"Ġferr":13582,"Ġphilos":13583,"Ġfulfill":13584,"Ġmeadows":13585,"Ġslivers":13586,"Ġinhaled":13587,"Ġbibimb":13588,"Ġproportions":13589,"Ġprofessionally":13590,"Ġdisclaimer":13591,"structed":13592,"Ġenforce":13593,"Ġgermany":13594,"Ġexpansive":13595,"Ġabruptly":13596,"Ġstereoty":13597,"Ġdisliked":13598,"Ġcomptoir":13599,"Ġcinema":13600,"Ġvaluable":13601,"Ġattentiveness":13602,"Ġinvisible":13603,"oriented":13604,"Ġtournament":13605,"Ġleisurely":13606,"Ġunbearable":13607,"Ġgazpacho":13608,"Ġaloha":13609,"Ġvindaloo":13610,"Ġreflexology":13611,"Ġulta":13612,"Ġapparel":13613,"Ġfurnishings":13614,"Ġclaustrophobic":13615,"Ġpeoples":13616,"Ġanthem":13617,"/\\":13618,"42":13619,"46":13620,"47":13621,"53":13622,"58":13623,"::":13624,"?!!":13625,"breakfast":13626,"cou":13627,"dep":13628,"def":13629,"dried":13630,"fch":13631,"fill":13632,"gard":13633,"gars":13634,"ghai":13635,"hin":13636,"hind":13637,"loo":13638,"last":13639,"mers":13640,"mand":13641,"mitted":13642,"nport":13643,"nmore":13644,"ov":13645,"pd":13646,"pic":13647,"pub":13648,"parent":13649,"rot":13650,"rone":13651,"range":13652,"sers":13653,"spr":13654,"section":13655,"tour":13656,"wart":13657,"wik":13658,"yummy":13659,"Ġtas":13660,"Ġtes":13661,"Ġtous":13662,"Ġtsa":13663,"Ġax":13664,"Ġaver":13665,"Ġace":13666,"help":13667,"Ġian":13668,"Ġimb":13669,"Ġwur":13670,"Ġwaking":13671,"rem":13672,"rer":13673,"inch":13674,"Ġbam":13675,"Ġbanc":13676,"Ġbicy":13677,"nds":13678,"Ġfishing":13679,"Ġfitted":13680,"Ġcort":13681,"Ġcott":13682,"Ġming":13683,"Ġmering":13684,"hab":13685,"hal":13686,"hap":13687,"Ġpul":13688,"Ġpity":13689,"Ġpups":13690,"Ġpimento":13691,"Ġtore":13692,"Ġdup":13693,"inging":13694,"lles":13695,"onut":13696,"icia":13697,"isers":13698,"anne":13699,"omin":13700,"Ġhagg":13701,"Ġhank":13702,"Ġhairsty":13703,"arind":13704,"aries":13705,"Ġelle":13706,"level":13707,"Ġbeg":13708,"Ġbeau":13709,"Ġrenew":13710,"Ġhunk":13711,"ett":13712,"ridge":13713,"oodle":13714,"alle":13715,"Ġheating":13716,"sto":13717,"adam":13718,"Ġmegan":13719,"Ġplating":13720,"ecis":13721,"Ġjj":13722,"elve":13723,"Ġlimes":13724,"Ġserene":13725,"chip":13726,"abo":13727,"Ġexorbit":13728,"Ġsaint":13729,"Ġsaves":13730,"Ġsaki":13731,"Ġthereafter":13732,"Ġals":13733,"Ġtix":13734,"Ġraz":13735,"Ġkay":13736,"Ġkiw":13737,"Ġsponge":13738,"Ġfritter":13739,"unched":13740,"Ġchila":13741,"Ġuser":13742,"ament":13743,"opher":13744,"Ġvino":13745,"Ġvouch":13746,"Ġvoodoo":13747,"Ġchez":13748,"Ġcheated":13749,"nim":13750,"Ġnodd":13751,"Ġcoins":13752,"izable":13753,"Ġdehy":13754,"Ġdebris":13755,"indy":13756,"Ġdisapoint":13757,"Ġdismay":13758,"Ġdisease":13759,"Ġamc":13760,"came":13761,"Ġpremade":13762,"Ġcongr":13763,"Ġflare":13764,"Ġflank":13765,"Ġflats":13766,"Ġflock":13767,"Ġflipped":13768,"agu":13769,"iger":13770,"\\\").":13771,"Ġdrap":13772,"Ġmans":13773,"Ġcrumbled":13774,"Ġtastings":13775,"Ġagents":13776,"ardi":13777,"ardo":13778,"uma":13779,"Ġdecatur":13780,"Ġteeter":13781,"Ġtwelve":13782,"Ġdelays":13783,"Ġdaytime":13784,"affles":13785,"Ġbless":13786,"Ġwayyy":13787,"Ġdiarr":13788,"iances":13789,"Ġslides":13790,"Ġstaffs":13791,"Ġtrimmed":13792,"Ġrights":13793,"ggies":13794,"Ġtakeaway":13795,"Ġbusiest":13796,"Ġsincerely":13797,"Ġ44":13798,"Ġ51":13799,"Ġdesirable":13800,"Ġworkouts":13801,"Ġwhereas":13802,"Ġcharity":13803,"Ġglitz":13804,"lection":13805,"Ġboca":13806,"pract":13807,"Ġshapes":13808,"Ġperfume":13809,"Ġtasteful":13810,"Ġretain":13811,"Ġretire":13812,"near":13813,"Ġhugo":13814,"Ġoptional":13815,"Ġcourts":13816,"Ġsoupy":13817,"odge":13818,"alement":13819,"Ġavac":13820,"Ġavid":13821,"Ġeggrolls":13822,"Ġreco":13823,"Ġrecession":13824,"Ġkiddos":13825,"nfresh":13826,"Ġhousemade":13827,"Ġplayoff":13828,"Ġuntouched":13829,"Ġindication":13830,"Ġshoving":13831,"Ġshoestring":13832,"Ġlistens":13833,"Ġturnover":13834,"Ġinclined":13835,"Ġstyled":13836,"itches":13837,"Ġshortcake":13838,"ncar":13839,"ncool":13840,"nthink":13841,"nthough":13842,"Ġbaths":13843,"Ġcere":13844,"Ġhostile":13845,"grav":13846,"Ġinspected":13847,"Ġpeppered":13848,"Ġbelle":13849,"Ġjuic":13850,"Ġsprayed":13851,"Ġproduced":13852,"ologist":13853,"unken":13854,"Ġdiscont":13855,"Ġimmer":13856,"Ġdoug":13857,"Ġprovider":13858,"Ġpulls":13859,"Ġmediocr":13860,"Ġsnapper":13861,"Ġcabo":13862,"Ġseller":13863,"return":13864,"aughter":13865,"shi":13866,"short":13867,"Ġturtle":13868,"aime":13869,"Ġgrills":13870,"Ġbanks":13871,"Ġrocking":13872,"Ġfiltered":13873,"Ġyoungest":13874,"Ġaffair":13875,"Ġtorture":13876,"Ġstudying":13877,"Ġfirehouse":13878,"forgot":13879,"Ġtraveler":13880,"Ġtravels":13881,"Ġelevation":13882,"Ġnicole":13883,"Ġverify":13884,"Ġentrances":13885,"Ġformat":13886,"Ġchilling":13887,"Ġpracticing":13888,"Ġrepeating":13889,"Ġclaiming":13890,"Ġstrangely":13891,"expensive":13892,"gua":13893,"Ġmerlot":13894,"Ġmatthe":13895,"Ġmatches":13896,"Ġmatzo":13897,"Ġstocking":13898,"illeurs":13899,"Ġtested":13900,"Ġjerry":13901,"Ġcomforting":13902,"Ġassisted":13903,"Ġunsweet":13904,"Ġunsatisf":13905,"Ġunsanitary":13906,"Ġdietary":13907,"Ġcrafts":13908,"Ġcraftsteak":13909,"Ġcherries":13910,"Ġfurthermore":13911,"screen":13912,"track":13913,"Ġoperate":13914,"Ġultras":13915,"Ġcrossing":13916,"Ġtoujours":13917,"Ġdomin":13918,"Ġhorrified":13919,"build":13920,"despite":13921,"Ġabsent":13922,"Ġchurros":13923,"Ġprofuse":13924,"Ġprograms":13925,"ncheers":13926,"nserver":13927,"Ġinvestment":13928,"Ġjewish":13929,"Ġsuccessfully":13930,"Ġunwind":13931,"Ġstressful":13932,"Ġmoldy":13933,"Ġeuro":13934,"Ġloosely":13935,"Ġrequirements":13936,"Ġfifth":13937,"hostess":13938,"Ġgraciously":13939,"Ġinept":13940,"Ġcycle":13941,"Ġkaow":13942,"nthankfully":13943,"Ġhumorous":13944,"Ġdiagnost":13945,"Ġlipstick":13946,"Ġresembles":13947,"Ġapplebees":13948,"Ġshannon":13949,"Ġshanghai":13950,"Ġjennifer":13951,
[...]
